<unk>	0
<s>	0
</s>	0
.	-3.05147
,	-4.02592
ം	-4.0725
്	-4.41102
▁	-4.42349
▁•	-4.71724
ു	-4.93948
ൻ	-5.05784
ൽ	-5.13407
▁·	-5.16885
▁ഈ	-5.20665
▁ഒരു	-5.30019
-	-5.32629
ങ്ങൾ	-5.54512
ി	-5.54747
ത്	-5.55284
ർ	-5.57137
▁എന്ന	-5.57587
സ്	-5.6926
യുടെ	-5.69413
ാ	-5.69482
യിൽ	-5.71102
ത്തിൽ	-5.71745
മ	-5.74194
യ	-5.75733
വ	-5.8035
യും	-5.82695
ത	-5.8721
ന	-5.87302
ക	-5.88477
വും	-5.92473
ും	-5.96939
ിൽ	-5.97892
▁.	-5.98817
ത്തിന്റെ	-5.9981
ക്ക	-6.00283
മാണ്	-6.05535
കൾ	-6.06143
▁അ	-6.10575
ര	-6.12506
ല	-6.14153
മായ	-6.15297
▁ആ	-6.19404
ത്ത	-6.26224
യാണ്	-6.26266
സ	-6.27118
ിന്റെ	-6.27966
മായി	-6.28097
ക്	-6.29403
റ	-6.31293
ാൻ	-6.333
െ	-6.344
ക്ക്	-6.37988
ാണ്	-6.42526
യിലെ	-6.49465
ത്തെ	-6.55312
ോ	-6.55443
▁ക	-6.55682
യെ	-6.55769
സി	-6.5584
ങ്ങളിൽ	-6.56042
ങ്ങളും	-6.56172
ണ	-6.58417
ുകൾ	-6.60502
േ	-6.62632
ുന്ന	-6.63841
▁മ	-6.64871
ുകയും	-6.66229
ന്	-6.70479
ുന്നു	-6.70579
ലി	-6.72219
ട	-6.72259
▁എ	-6.73247
വി	-6.74499
▁ആണ്	-6.78875
ിലെ	-6.79609
പ	-6.80381
ന്റെ	-6.8358
ായി	-6.83779
▁വി	-6.84251
▁ഇ	-6.84726
പ്പ	-6.8512
:	-6.86159
റ്റ	-6.86465
ഡ്	-6.86814
▁ഇത്	-6.87028
ുള്ള	-6.90292
▁ത	-6.91009
ത്തിന്	-6.91751
ള	-6.92398
▁ചെയ്തു	-6.92999
ത്തിലെ	-6.93529
ട്ട	-6.95106
▁നിന്നും	-6.95419
▁പ്രധാന	-6.95819
നി	-6.95958
ക്കു	-6.9625
ഗ	-6.9742
▁ഏറ്റവും	-6.99912
▁സ	-7.00682
▁അദ്ദേഹം	-7.01079
ൂ	-7.01938
ദ	-7.01939
ച്ച	-7.0295
ടി	-7.03752
ത്തിനു	-7.04271
ങ്ങളുടെ	-7.04777
രി	-7.05726
ായ	-7.07529
▁തന്നെ	-7.09012
തി	-7.09442
▁മുതൽ	-7.09491
ഹ	-7.11127
▁ന	-7.11254
ത്ത്	-7.12201
▁എന്നീ	-7.12724
▁വ	-7.12838
കളിൽ	-7.13421
▁സി	-7.13837
കളും	-7.13965
ിരുന്നു	-7.16138
▁നിന്ന്	-7.16144
ുക	-7.17173
ിട്ടുണ്ട്	-7.1741
o	-7.18482
ഡ	-7.1858
ശ	-7.18645
പി	-7.19245
'	-7.1964
▁ബ	-7.20232
▁ഇതു	-7.20958
▁വരെ	-7.21575
ഡി	-7.2163
▁എന്നാൽ	-7.21685
മുള്ള	-7.21917
റി	-7.22354
ിയ	-7.22448
യോ	-7.22781
ുന്നത്	-7.23047
▁-	-7.23399
ീ	-7.23577
യുള്ള	-7.2369
ന്ന	-7.24008
▁പ	-7.24968
മാ	-7.26657
ഷ	-7.26894
മി	-7.27704
"	-7.29438
ജ	-7.29587
റ്റ്	-7.29878
നും	-7.30207
ൾ	-7.30272
ിക	-7.30616
പ്ര	-7.30705
ൺ	-7.30873
▁എന്ന്	-7.31849
s	-7.31908
നെ	-7.32133
ലെ	-7.32819
കളുടെ	-7.32876
▁പല	-7.33499
▁ബന്ധപ്പെട്ട	-7.33907
▁തന്റെ	-7.34338
യാ	-7.35234
യായി	-7.3527
ിച്ചു	-7.35677
▁"	-7.35776
▁ഇന്ത്യൻ	-7.36176
▁'	-7.36555
▁18	-7.36729
ില്ല	-7.3673
▁എന്നിവ	-7.36957
ങ്ങളെ	-7.374
ബ	-7.37564
ാം	-7.37737
യായ	-7.37782
പ്പെട്ട	-7.38639
തു	-7.39758
▁ഉ	-7.40213
▁ചില	-7.40967
എസ്	-7.42539
▁ൽ	-7.4259
▁കാ	-7.43004
e	-7.43943
▁ജ	-7.44476
ായിരുന്നു	-7.44818
ദ്	-7.4485
അ	-7.46311
▁പ്ര	-7.47145
ത്തു	-7.47346
▁ഹ	-7.47709
▁വലിയ	-7.48143
▁തുടങ്ങിയ	-7.48165
താണ്	-7.48198
▁ഐ	-7.4839
ജി	-7.48873
▁ആദ്യ	-7.48891
▁ഗ	-7.48993
▁ഒ	-7.49281
▁കോ	-7.49589
▁അവ	-7.49722
▁ഇവിടെ	-7.49842
ഴ	-7.49865
ച	-7.50046
ൈ	-7.51242
▁ല	-7.51358
ിരുന്ന	-7.51542
▁ദ	-7.51739
പ്	-7.51759
നായ	-7.52048
ിച്ച	-7.52129
▁പി	-7.52271
നാ	-7.52439
▁ച	-7.52779
ങ്ങള	-7.533
▁പിന്നീട്	-7.53503
വർ	-7.53562
ൊ	-7.54137
▁ലേഖനം	-7.54539
ിനെ	-7.54807
ലാ	-7.5501
t	-7.55863
▁ശേഷം	-7.56023
യ്	-7.56031
▁സ്	-7.56615
▁അപൂർണ്ണമാണ്	-7.57283
▁ശ	-7.57726
നു	-7.58234
തും	-7.58933
▁മാ	-7.58996
▁ചെയ്ത	-7.59395
കളെ	-7.59422
റ്റി	-7.59442
ാൽ	-7.59949
ിരിക്കുന്നു	-7.60212
▁സഹായിക്കുക	-7.60588
ിന്	-7.61365
ത്തിലും	-7.61721
▁എന്നു	-7.61881
ണി	-7.62037
;	-7.62088
ങ്ക	-7.62185
▁ബി	-7.62228
ക്കി	-7.62238
ബി	-7.62267
യ്ക്ക്	-7.62405
▁വളരെ	-7.62473
സാ	-7.62629
▁മറ്റു	-7.62732
▁നി	-7.62753
വ്	-7.62838
ഗ്	-7.63799
മ്പ	-7.64228
ത്തി	-7.64341
▁വികസിപ്പിക്കുവാ	-7.64439
i	-7.64762
വാ	-7.65495
ിലും	-7.6573
ണ്ട	-7.6579
മു	-7.66196
മായിരുന്നു	-7.66446
▁ലെ	-7.66465
ിനു	-7.6699
▁അവർ	-7.67243
▁മു	-7.67309
▁കേരള	-7.67489
▁വാ	-7.68321
▁ഇവ	-7.68362
▁രണ്ടു	-7.68992
ന്ത	-7.6936
താ	-7.69726
ൂർ	-7.70268
▁സാ	-7.70359
ബ്	-7.7063
യിലും	-7.70785
▁എല്ലാ	-7.70879
മോ	-7.70974
ല്ല	-7.71004
്യ	-7.71223
യി	-7.71297
രു	-7.71517
▁കൂടുതൽ	-7.72155
രാ	-7.72938
ളി	-7.73422
ഫ	-7.74675
ാന	-7.74886
പ്പെട്ടു	-7.74937
▁എന്നും	-7.74953
സ്റ്റ	-7.7534
▁പാ	-7.75448
ട്ട്	-7.75585
ിക്ക	-7.75712
▁അത്	-7.76218
യായിരുന്നു	-7.76423
ുകളും	-7.76557
എ	-7.76635
▁ഓഫ്	-7.77199
▁വഴി	-7.7755
റാ	-7.77776
മരം	-7.77835
കാര	-7.78211
ട്ടി	-7.79046
m	-7.79249
ഇ	-7.79518
r	-7.80239
▁സു	-7.80477
യില	-7.80946
▁ഇന്ത്യ	-7.80968
▁2	-7.81889
▁|	-7.8205
ക്ഷ	-7.82142
ണം	-7.82468
▁സംസ്ഥാന	-7.82731
▁നടന്ന	-7.82916
നം	-7.8307
ങ്	-7.83349
▁എന്നാണ്	-7.83553
▁സം	-7.83937
▁സെ	-7.84362
▁മി	-7.84831
▁രൂപ	-7.84922
ഥ	-7.85013
റിയ	-7.85152
w	-7.85421
▁അദ്ദേഹത്തിന്റെ	-7.8562
▁ബാ	-7.85732
പ്പോൾ	-7.85832
ൗ	-7.86049
▁ഭരണ	-7.86247
ങ്ങളിലും	-7.86258
ങ്ങ	-7.86442
▁അംഗ	-7.86883
ുകളിൽ	-7.86988
▁ഉള്ള	-7.87089
▁കു	-7.87228
▁ഓ	-7.87652
▁ആയിരുന്നു	-7.87692
ങ്ങളാണ്	-7.87937
ുണ്ട്	-7.8847
▁വിവിധ	-7.88705
ഭ	-7.89272
ുമ്പോൾ	-7.89712
y	-7.89822
കള	-7.90501
ാർ	-7.90969
വേ	-7.91096
ിക്കുന്ന	-7.91269
▁റ	-7.91287
p	-7.9172
▁നഗര	-7.91894
ംഗ	-7.92018
▁ചലച്ചിത്ര	-7.92748
▁പുതിയ	-7.93131
ഫ്	-7.93345
▁രണ്ട്	-7.93385
ഷ്	-7.93392
▁ഇട	-7.93646
ിത	-7.93651
▁തുടർന്ന്	-7.94362
▁നിയമ	-7.94445
▁കേന്ദ്ര	-7.94581
▁ഏ	-7.95247
▁വെള്ള	-7.95374
u	-7.95473
ാറുണ്ട്	-7.95773
മ്മ	-7.95911
▁ചെയ്യ	-7.96437
▁ഇതിന്റെ	-7.96443
ക്കും	-7.96583
▁ചിത്ര	-7.96816
ലോ	-7.97333
▁തുടങ്ങി	-7.97598
ക്കാ	-7.97708
വര	-7.97762
ാനും	-7.98031
▁ഭാഷ	-7.98285
കാ	-7.98587
ത്തില	-7.98829
▁കെ	-7.9895
▁പേരിൽ	-7.99323
െങ്കിലും	-7.99682
ങ്ങൾക്ക്	-8.00101
യർ	-8.0037
▁കാല	-8.00431
▁സ്ഥിതി	-8.00542
a	-8.00804
▁ലോക	-8.00896
▁അവരുടെ	-8.01727
▁ക്ഷേത്ര	-8.02322
റോ	-8.02339
▁1	-8.02474
▁ചെറു	-8.02581
▁കമ്പനി	-8.02728
വുമായി	-8.02873
ക്കോ	-8.02972
▁വന്ന	-8.03571
▁വര	-8.03799
മുണ്ട്	-8.0415
▁3	-8.04416
ച്ചു	-8.04592
▁ചെയ്യുന്ന	-8.04707
▁ഖ	-8.05274
ത്തിലാണ്	-8.06011
നായി	-8.06254
ഞ്ഞ	-8.06565
▁19	-8.06687
▁സംഗീത	-8.06773
▁മെ	-8.06856
▁കി	-8.0689
2	-8.06979
▁മത	-8.07055
▁ചെയ്യുന്നു	-8.07447
▁ഇദ്ദേഹം	-8.07668
▁രാഷ്ട്രീയ	-8.07877
▁ജന	-8.07883
▁നിരവധി	-8.07973
തായി	-8.08065
ിരിക്കുന്നത്	-8.08398
ിരുന്നത്	-8.08474
▁ഡി	-8.08871
നാണ്	-8.09003
▁യു	-8.0907
▁അഥവാ	-8.09092
▁ഇതിൽ	-8.09451
ില	-8.09573
ധ	-8.0964
°	-8.09845
കര	-8.09913
സ്ത	-8.10005
ാനുള്ള	-8.10167
▁ഉണ്ട്	-8.10226
al	-8.10409
പ്പി	-8.10831
ണ്ട്	-8.11016
രുടെ	-8.111
കെ	-8.11275
▁സ്ഥിതിചെയ്യുന്ന	-8.11314
▁നദി	-8.11345
സിന്റെ	-8.11384
c	-8.11442
▁കേരളത്തിലെ	-8.11604
▁കൈ	-8.11901
▁നില	-8.12563
ബാ	-8.12577
▁അവിടെ	-8.12584
ിച്ച്	-8.12794
ന്റ	-8.12998
er	-8.13283
സം	-8.13305
▁കൊ	-8.13331
▁യുദ്ധ	-8.13521
▁ആയി	-8.13541
ത്തിനും	-8.1369
▁ഏക	-8.1377
▁വെ	-8.13919
▁10	-8.13942
കാല	-8.13997
▁മര	-8.14049
▁ട	-8.14296
മേ	-8.14301
ഖ	-8.14357
▁കര	-8.14517
ുകളുടെ	-8.14565
▁ചെറിയ	-8.14633
ഭാഗ	-8.14722
▁കഥ	-8.15096
ീയ	-8.15321
▁അതിന്റെ	-8.15396
ാവ	-8.15542
ാത്ത	-8.15592
ഞ്ച	-8.15614
മാന	-8.15704
ത്തിലുള്ള	-8.16191
ഐ	-8.16507
ar	-8.16783
ുടെ	-8.16976
ുകയുണ്ടായി	-8.17163
▁ജില്ലയിലെ	-8.17167
തിനാൽ	-8.17291
▁എസ്	-8.1783
▁കൂടാതെ	-8.17833
▁കൊണ്ട്	-8.17984
ഗോ	-8.18134
▁S	-8.18609
യു	-8.18741
ശ്	-8.18806
▁6	-8.18828
▁വേണ്ടി	-8.19316
▁ജോലി	-8.19472
▁5	-8.19847
▁ബ്രിട്ടീഷ്	-8.19865
▁വേ	-8.19989
▁പദ്ധതി	-8.20122
▁നാടക	-8.2036
യ്ക്ക	-8.20375
ിരിക്കുന്ന	-8.2067
▁സാഹിത്യ	-8.20682
യിലാണ്	-8.20812
എം	-8.21234
പ്പ്	-8.21275
കം	-8.21464
▁ഫ	-8.21527
▁മുൻ	-8.21572
ന്മാർ	-8.21642
▁അവസാന	-8.21681
ലും	-8.21887
▁16	-8.21898
▁രാജ്യ	-8.21918
നോ	-8.22106
ത്ര	-8.22264
▁കൂടി	-8.22322
ട്	-8.22417
▁പാർട്ടി	-8.22598
▁ഓരോ	-8.22771
ുമായി	-8.22812
▁17	-8.22827
കൾക്ക്	-8.22863
▁ആദ്യത്തെ	-8.22923
an	-8.22958
▁ഇന്ത്യയിലെ	-8.23363
•	-8.23458
▁ആർ	-8.23586
▁4	-8.23591
രെ	-8.23701
▁A	-8.23738
കു	-8.24146
ക്കാർ	-8.24248
ജ്	-8.24339
▁ഇംഗ്ലീഷ്	-8.24364
▁ഉപ	-8.24494
▁ജല	-8.24712
▁ഒന്ന	-8.24717
▁M	-8.24888
▁മികച്ച	-8.24969
പ്പെടുന്ന	-8.25372
റു	-8.25407
ഹ്	-8.25567
ന്റ്	-8.25715
പ്പെടുന്നു	-8.25933
▁എം	-8.26045
ള്ള	-8.26181
▁അനു	-8.26221
k	-8.2631
▁മറ്റൊരു	-8.2651
▁മല	-8.26986
▁ചെ	-8.27194
മാര	-8.27322
▁ദേശീയ	-8.27328
▁ഇരു	-8.27443
▁നടത്തിയ	-8.27455
സ്റ്റ്	-8.27682
▁വരുന്ന	-8.28014
/	-8.28201
▁പ്രദേശ	-8.28373
ത്വ	-8.28385
h	-8.28417
▁കൂട്ട	-8.28637
▁അമേരിക്കൻ	-8.29059
▁ലാ	-8.29173
▁ശ്രീ	-8.29385
വെ	-8.29571
n	-8.29849
ിട	-8.29849
▁ഇവർ	-8.29943
▁നിന്നു	-8.29977
ിട്ടുള്ള	-8.30011
ന്ദ	-8.30042
▁രാജ	-8.30118
പാ	-8.3013
▁ലി	-8.30309
▁15	-8.3045
ിക്കുന്നു	-8.30568
ുവാൻ	-8.30851
സ്സ	-8.30935
മീ	-8.31349
ഴി	-8.31403
ാതെ	-8.31574
▁ഇസ്	-8.31687
▁വിഭാഗ	-8.31786
▁പ്രത്യേക	-8.31966
ടു	-8.31981
കോ	-8.32067
▁മൂന്നു	-8.3264
▁ബന്ധ	-8.32646
▁the	-8.32672
▁ഡ	-8.32801
▁പ്രകാരം	-8.32848
▁മഹാ	-8.32877
▁ചരിത്ര	-8.33001
▁മലയാള	-8.33002
▁അടുത്ത	-8.33013
▁സാധാരണ	-8.33102
▁പാല	-8.33179
▁ന്	-8.33307
ിംഗ്	-8.33356
ികൾ	-8.33491
ായിരുന്ന	-8.33554
തോടെ	-8.33828
▁റാ	-8.3418
or	-8.34433
▁ചിത്രം	-8.34618
ക്കാര	-8.34643
0	-8.3473
d	-8.35147
00	-8.35421
▁നൽകിയ	-8.35494
▁തല	-8.3551
ത്തോടെ	-8.35553
▁മോ	-8.3566
▁of	-8.35854
▁രണ്ടാം	-8.3607
▁നടത്തി	-8.36206
മാർ	-8.3625
ഫി	-8.36336
കി	-8.36375
g	-8.36482
ഹി	-8.36744
ൊരു	-8.36923
▁കോട്ട	-8.37144
▁നേടി	-8.37266
▁സസ്യ	-8.37569
രായ	-8.37646
▁വർഷം	-8.37798
▁സ്ഥാന	-8.3794
ിന	-8.38024
▁കുറഞ്ഞ	-8.38055
▁ജി	-8.38172
യുമായി	-8.38347
▁ജീവിത	-8.38481
▁സാമ്രാജ്യ	-8.38582
▁സർക്കാർ	-8.38595
▁കാണ	-8.3876
▁12	-8.3886
യിലുള്ള	-8.38978
രോ	-8.38984
▁സംഘടന	-8.39061
▁തുടങ്ങിയവ	-8.39267
ആ	-8.39417
കളാണ്	-8.39893
▁ഷാ	-8.40001
l	-8.40179
ed	-8.40194
▁സ്ഥല	-8.40311
▁നാ	-8.40471
▁ആന	-8.40533
▁C	-8.40571
ണ്ണ	-8.40755
ക്കുന്ന	-8.40817
നേ	-8.40895
▁കൃതി	-8.41057
▁പ്രതി	-8.41138
ങ്ങളിലെ	-8.41404
▁ആയ	-8.41551
ുവ	-8.41816
▁മാത്രം	-8.42075
▁നൽകി	-8.42126
▁കൃഷി	-8.42179
വരെ	-8.42508
ച്ച്	-8.42536
▁സാമ്പത്തിക	-8.42553
▁താ	-8.42585
▁ഉപയോഗിക്ക	-8.4268
▁സംവിധാനം	-8.42785
യ്യ	-8.43397
▁ടി	-8.43508
ഷ്ട	-8.43516
▁വൈ	-8.43535
▁പറയുന്നു	-8.43628
▁പൊതു	-8.43693
സ്ഥ	-8.4391
▁സോ	-8.43962
▁ചാ	-8.4402
▁വിജയ	-8.44033
രും	-8.44271
രിയ	-8.44326
▁കിലോമീറ്റർ	-8.44458
ിലേക്ക്	-8.44549
സർ	-8.44839
ജന	-8.44889
▁കളി	-8.44978
▁നിർമ്മിച്ച	-8.45194
ശാല	-8.45241
▁ഷ	-8.45304
▁മഞ്ഞ	-8.45671
▁പരി	-8.45778
യ്ക്കു	-8.45787
▁ആദ്യമായി	-8.45789
ിലാണ്	-8.46128
▁തു	-8.46146
▁ലോ	-8.46165
തന്നെ	-8.46221
▁പേര	-8.46782
▁എണ്ണ	-8.47085
▁സ്വ	-8.47217
ാനായി	-8.47497
സിൽ	-8.47564
മെ	-8.47651
ദി	-8.47726
▁ബെ	-8.47737
▁തോ	-8.47941
▁സിനിമ	-8.47984
4	-8.48529
ഖ്	-8.48732
പ്പു	-8.48824
▁ഹോ	-8.4902
▁വിദ്യാഭ്യാസ	-8.49059
▁ഏകദേശം	-8.49144
▁ഇത്തരം	-8.4943
ാനി	-8.49461
▁P	-8.49464
▁പ്രമുഖ	-8.49516
▁പ്രവർത്തിക്ക	-8.49627
ദേശ	-8.49718
ൃ	-8.49722
▁വർഷ	-8.49828
b	-8.50071
▁പഠന	-8.50102
▁വ്യക്തി	-8.50224
▁ചന്ദ്ര	-8.50227
ുകള	-8.50371
ലാണ്	-8.50429
▁പോ	-8.50453
ഷി	-8.50607
ൌ	-8.50907
ംബ	-8.51098
സു	-8.51117
▁ബോ	-8.51143
തോ	-8.51164
▁ഗ്രാമ	-8.5125
പ്പെട	-8.51325
▁ഡോ	-8.51369
▁കാട്ടു	-8.51554
ാണു	-8.51748
ങ്ങളായ	-8.51804
▁പേര്	-8.52152
▁സൈനിക	-8.52317
്റെ	-8.52335
▁നേടിയ	-8.52462
▁മധ്യ	-8.5253
▁നൂറ്റാണ്ട	-8.52618
us	-8.52645
ഴു	-8.52846
▁പോലെ	-8.53049
in	-8.53126
നിൽ	-8.53282
രൂപ	-8.53295
▁ഫാ	-8.53419
▁ര	-8.53421
▁മുഖ്യ	-8.53463
▁ഇപ്പോൾ	-8.53683
▁ജോ	-8.53751
▁കല	-8.53836
▁പ്രവർത്തന	-8.53887
▁ഗ്രന്ഥ	-8.54073
യം	-8.54126
▁ചെയ്യുന്നത്	-8.54247
▁സംഘ	-8.54325
ണ്ഡ	-8.5437
▁റോ	-8.54602
▁ഇന്ത്യയുടെ	-8.54698
യൂ	-8.54731
▁എന്നിവയാണ്	-8.54763
▁ജില്ല	-8.5479
▁കേരളത്തിൽ	-8.54953
ഡോ	-8.55076
▁9	-8.55449
ിക്കുകയും	-8.55535
▁മാത്രമേ	-8.55599
▁ഗോ	-8.55675
▁എന്നിങ്ങനെ	-8.55756
▁പൂ	-8.55815
▁ട്ര	-8.55876
നില	-8.5598
ക്കാൻ	-8.56101
▁മനുഷ്യ	-8.56372
ലു	-8.56405
പോ	-8.56572
▁വീണ്ടും	-8.56613
▁എഴുതിയ	-8.56632
കളിലും	-8.56854
▁സഭ	-8.56906
▁കൂടിയ	-8.56949
ക്കൽ	-8.56994
▁അടി	-8.57023
▁ഫി	-8.57057
5	-8.57103
▁മറ്റ്	-8.57185
▁8	-8.57215
▁ഹി	-8.57236
▁ആവശ്യ	-8.57528
ഹാ	-8.57542
▁അറിയപ്പെടുന്നു	-8.57556
▁ശക്തി	-8.57647
▁അൽ	-8.57839
▁മേഖല	-8.57936
▁പെ	-8.58117
▁കാണാം	-8.58259
re	-8.5826
▁കാലത്ത്	-8.58405
▁യാത്ര	-8.5846
▁മീറ്റർ	-8.58641
▁ഇതിനു	-8.58653
▁കുടുംബ	-8.58662
▁ഹാ	-8.58973
രം	-8.58994
▁അതി	-8.59034
▁എൻ	-8.59177
and	-8.59179
ാന്ത	-8.59189
ഗാ	-8.59233
▁രീതി	-8.59319
ണ്ടി	-8.59321
▁കട	-8.59358
ുന്നുണ്ട്	-8.59666
യിലേക്ക്	-8.59738
മുഖ	-8.59761
ക്സ്	-8.60198
ൻസ്	-8.60377
▁ഇത	-8.60676
▁നാലു	-8.60694
▁മാറി	-8.60768
▁ദേവ	-8.60806
നായിരുന്നു	-8.6083
▁ഹെ	-8.60877
­	-8.61197
E	-8.6127
ത്താ	-8.61356
ിൻറെ	-8.61415
▁പേർ	-8.6148
▁പര	-8.61527
▁ഏറെ	-8.61724
ിങ്	-8.61776
▁മുഹമ്മദ്	-8.61814
3	-8.61882
N	-8.61909
ദ്ധ	-8.61957
am	-8.62001
▁പള്ളി	-8.62185
സോ	-8.62235
▁പുറത്തിറങ്ങിയ	-8.62328
▁വന്നു	-8.62338
▁മൂലം	-8.62341
വു	-8.62355
%	-8.62469
▁/	-8.6259
ലിയ	-8.62773
ഭാഷ	-8.62824
സെ	-8.63163
മന	-8.63206
തിനു	-8.6327
ക്കൾ	-8.6335
ഷൻ	-8.63366
ra	-8.6337
ിലൂടെ	-8.63376
▁ബാല	-8.63423
▁അമ്മ	-8.63434
ീസ്	-8.63507
▁പ്രശസ്ത	-8.6356
▁ഇന്ത്യയിൽ	-8.63578
▁ഭ	-8.63694
ാവുന്ന	-8.63905
▁അമേരിക്ക	-8.6404
▁രൂപം	-8.64044
▁നിര	-8.64046
ത്തിന	-8.64336
▁ആധുനിക	-8.64592
▁നിർമ്മാണ	-8.6469
കൻ	-8.6479
കേന്ദ്ര	-8.64794
▁പൊ	-8.64827
▁ഉത്തര	-8.6484
ുണ്ടായ	-8.64851
▁ക്ഷേത്രം	-8.64883
▁2011	-8.65067
ക്കര	-8.65357
ോൺ	-8.6541
▁നിന്നുള്ള	-8.65427
▁ദൈവ	-8.65491
▁ലഭിച്ചു	-8.65519
C	-8.65565
ലേ	-8.65713
▁നിറ	-8.65769
▁നിന്ന	-8.65797
▁കാരണം	-8.65874
▁റി	-8.66054
▁11	-8.66163
ട്ടു	-8.66284
ിട്ട	-8.66303
ശാസ്ത്ര	-8.66348
▁ശാസ്ത്ര	-8.66497
നീ	-8.66601
ന്തി	-8.66623
▁നൽക	-8.66646
▁സ്വതന്ത്ര	-8.66675
ശി	-8.66716
▁B	-8.66924
ആർ	-8.67146
യായിരുന്ന	-8.67201
▁ടാ	-8.67268
നീലി	-8.67331
▁വൻ	-8.67505
യുടെയും	-8.67509
▁ദക്ഷിണ	-8.67553
ത്തിനായി	-8.67675
▁കണ്ട	-8.67729
േഷൻ	-8.67869
്യം	-8.67889
▁തെ	-8.68097
േറ്റ	-8.68171
ക്കുകയും	-8.68174
▁അക്കാദമി	-8.68203
ത്തിലൂടെ	-8.68434
സ്ഥാന	-8.68456
▁7	-8.68482
ങ്ങളായി	-8.68585
▁പെരു	-8.68622
ങ്ങളുമായി	-8.68854
▁ഉപയോഗിച്ച്	-8.68865
▁ജനസംഖ്യ	-8.69236
▁s	-8.69291
▁മൂ	-8.69332
▁ജാ	-8.69356
▁തീ	-8.69393
▁നല്ല	-8.69459
▁കാസ്ട്രോ	-8.69567
on	-8.69622
ഗ്ര	-8.69814
▁അര	-8.70131
▁നക്ഷത്ര	-8.70186
▁മാസ	-8.70544
▁in	-8.70757
▁നടത്ത	-8.7076
▁യൂ	-8.71254
കാലത്ത്	-8.71266
▁ഒന്നാം	-8.71269
ിപ്പ	-8.71337
▁ദിവസം	-8.71463
▁അലി	-8.71554
▁പുസ്തക	-8.71558
ന്നു	-8.71692
▁സമ	-8.71745
വീ	-8.7176
en	-8.71833
വയാണ്	-8.7192
▁ഉയർന്ന	-8.71983
മാൻ	-8.72012
ക്കുള്ള	-8.72062
ുന്നതിന്	-8.72123
▁യ	-8.72307
▁ജെ	-8.72375
▁പദ	-8.72379
▁സ്ഥാപന	-8.7249
▁മൂന്ന്	-8.7284
▁ലഭിച്ച	-8.72868
▁കൂ	-8.73028
ംഗ്	-8.7317
▁പുരാതന	-8.73264
▁പറഞ്ഞ	-8.73271
▁സംസ്കൃത	-8.73281
ത്തിയ	-8.73346
ചി	-8.73461
▁കഴിഞ്ഞ	-8.73513
ാസ	-8.73614
ൻഡ	-8.73655
1	-8.73678
ോളം	-8.74074
ആം	-8.74253
റിന്റെ	-8.745
▁14	-8.74558
▁ക്രി	-8.74582
റും	-8.74586
ുകയായിരുന്നു	-8.74729
▁എന്നിവർ	-8.74783
▁ഭാരത	-8.74838
ഞ്ഞു	-8.74861
▁വിള	-8.74892
▁ഉപയോഗിക്കുന്നു	-8.75124
ത്തിലേക്ക്	-8.75305
▁ജനുവരി	-8.75424
▁പഴയ	-8.75494
പ്പുഴ	-8.75495
f	-8.75621
▁ഇൻ	-8.75636
ത്യ	-8.75726
▁മേ	-8.75907
▁വച്ച്	-8.75936
▁സ്ത്രീ	-8.75967
യാർ	-8.76104
▁നിലവിൽ	-8.7629
▁രോഗ	-8.76294
ത്തിനുള്ള	-8.76422
▁ഇങ്ങനെ	-8.76492
ശേഷം	-8.76509
▁അവകാശ	-8.76603
വാസ	-8.76705
▁പട്ടണ	-8.7674
▁ഗാ	-8.76818
▁മാറ്റ	-8.77078
വൻ	-8.77081
▁തമിഴ്	-8.7716
▁ചേര	-8.77186
ച്ചി	-8.77337
ing	-8.77382
കർ	-8.7756
▁കേ	-8.77746
▁ഭൂ	-8.7785
▁20	-8.77886
it	-8.77924
സീ	-8.78014
th	-8.7802
മാണിത്	-8.78051
▁തീര	-8.78061
ിക്കാൻ	-8.78084
le	-8.78119
നിയ	-8.7818
▁എങ്കിലും	-8.78487
▁നാട്ടു	-8.78508
തിൽ	-8.78534
കളായ	-8.78767
ങ്ങൾക്കും	-8.78843
വാദ	-8.78853
ാക്കി	-8.78926
ലം	-8.79128
▁വിവാഹം	-8.79174
▁അധികാര	-8.79212
▁രചിച്ച	-8.79273
▁ഇല	-8.79347
▁അന്താരാഷ്ട്ര	-8.79349
▁അതിൽ	-8.7946
▁ഊ	-8.79486
▁ഗാന	-8.79599
വുമായ	-8.79659
▁നട	-8.79775
കരിക്ക	-8.79888
ിനും	-8.80003
▁നിർമ്മിക്ക	-8.80089
തുമായ	-8.8017
▁ധാരാളം	-8.80218
▁തടാക	-8.80227
▁പച്ച	-8.80235
മായും	-8.80498
▁വന	-8.80557
1-	-8.80852
▁ചേർന്ന്	-8.80871
രീതി	-8.80977
ക്ര	-8.8104
▁പ്രസിദ്ധീകരിച്ച	-8.81101
▁ഡെ	-8.81129
A	-8.81228
▁അത	-8.81256
▁ദാ	-8.81268
▁നെ	-8.8127
ജ്ജ	-8.81407
▁a	-8.81672
▁മാൻ	-8.81692
▁വിശ്വാസ	-8.81693
▁ഉപയോഗിക്കുന്ന	-8.81709
▁പ്രവിശ്യ	-8.81868
ുമാണ്	-8.81905
{	-8.81973
▁സർ	-8.81999
ch	-8.82074
ന്നി	-8.82104
▁പറയ	-8.82155
വോ	-8.82173
ഭരണ	-8.82179
▁തി	-8.82217
ലീ	-8.82284
▁കാര്യ	-8.82339
ാര	-8.82572
▁മാർ	-8.82922
▁ഭാഗ	-8.82954
at	-8.83188
▁ഡാ	-8.83339
▁സംഭവ	-8.83393
ങ്ങി	-8.83503
▁രാമ	-8.83552
▁ഇന്ന്	-8.83636
കല	-8.83658
ല്ലാ	-8.83662
S	-8.83712
▁വില	-8.83725
▁സഹ	-8.83736
ഷ്യ	-8.83997
▁ഗു	-8.84011
▁മഴ	-8.84053
വാലൻ	-8.8409
▁മുസ്	-8.84235
പൂർ	-8.84261
റെ	-8.84294
▁സ്കൂൾ	-8.84436
വിൽ	-8.8444
ക്സ	-8.84498
▁നേതൃത്വത്തിൽ	-8.84548
7	-8.84552
ാളി	-8.84576
യിലൂടെ	-8.8465
▁പു	-8.84688
▁ലേഖന	-8.84815
▁H	-8.84848
▁നാഷണൽ	-8.84909
തല	-8.84915
▁ഗുരു	-8.84977
▁ദി	-8.85087
▁തിരിച്ച	-8.85101
▁ഹിന്ദു	-8.85341
തീ	-8.85489
തിന്റെ	-8.85539
▁കൂട	-8.8554
▁വിഷയ	-8.85597
യുമാണ്	-8.85603
കളായി	-8.85648
പെ	-8.85851
▁ഹൈ	-8.8593
ീകരണ	-8.85983
▁ജനിച്ചു	-8.8605
ബോ	-8.86115
ക്ഷേത്ര	-8.86187
▁മിക്ക	-8.86204
▁ന്യൂ	-8.86209
▁പഞ്ച	-8.86219
▁സൈ	-8.8623
കൊണ്ട്	-8.86244
ഘ	-8.86247
▁ചൈന	-8.86295
▁പ്രധാനമായും	-8.86513
▁ബ്ര	-8.86524
▁അങ്ങനെ	-8.86572
▁ആകെ	-8.86576
▁ഉപയോഗിച്ച	-8.86609
▁വ്യത്യസ്ത	-8.86686
എൻ	-8.86711
റ്റു	-8.86715
ക്രമ	-8.8684
▁കലാ	-8.87057
▁അല്ലെങ്കിൽ	-8.87109
▁ആദ്യം	-8.873
പരമായ	-8.87314
ur	-8.87439
▁സമൂഹ	-8.87509
ത്വം	-8.87563
ക്കായി	-8.87585
ോട്	-8.87681
വന്ന	-8.87781
മല്ല	-8.87805
▁വീ	-8.87937
ത്തിൻറെ	-8.88258
വിന്റെ	-8.88339
ജാ	-8.88401
െന്നും	-8.88443
▁അതു	-8.88448
▁രചന	-8.88459
▁കണ്ടെത്ത	-8.88543
ic	-8.88617
▁ഹരി	-8.88631
▁മറ്റും	-8.88657
പ്പെടുത്ത	-8.88683
▁ശിവ	-8.88725
▁അഭിപ്രായ	-8.88808
യേ	-8.88964
▁25	-8.89076
ഉ	-8.8909
▁D	-8.89384
▁സൂര്യ	-8.89429
ങ്ങ്	-8.89458
▁ബു	-8.89535
▁തങ്ങളുടെ	-8.89545
െടുത്ത	-8.89569
▁സമയം	-8.89616
▁ജയ	-8.89625
▁ഉണ്ടായ	-8.89868
▁ചേർന്ന	-8.89869
ഷണ	-8.90013
മാക്കി	-8.90258
മല	-8.90284
▁G	-8.90358
▁പത്ര	-8.90424
▁വാദ	-8.90526
▁തമ്മിൽ	-8.90555
▁സമുദ്ര	-8.90583
ഭാവ	-8.90734
▁ആശയ	-8.90766
▁പാത	-8.90872
▁ക്യൂബ	-8.90971
ർക്ക്	-8.90982
▁13	-8.90988
ഃ	-8.91035
▁കണ്ണ	-8.91095
▁ദിവസ	-8.91136
▁നിന്നാണ്	-8.91201
▁വർഗ്ഗ	-8.9127
is	-8.91338
▁ഇതിനെ	-8.91494
▁രീതിയിൽ	-8.91538
പുര	-8.9157
▁അടിസ്ഥാന	-8.91585
▁ചി	-8.91628
▁നോവല	-8.91737
ാല	-8.9178
രേഖ	-8.91907
ിലുള്ള	-8.91961
▁താഴെ	-8.92052
ോള	-8.92068
’	-8.92262
ഹാര	-8.92388
▁മറ	-8.92468
10	-8.92498
ത്തന്നെ	-8.92557
▁വ്യവസായ	-8.92627
▁ഭൂമി	-8.92822
▁കൊണ്ട	-8.92865
സഭ	-8.92866
▁യഹൂദ	-8.9288
▁പേരു	-8.92952
യാൽ	-8.92986
ബർ	-8.93024
ാപ	-8.9307
▁കോളേജ്	-8.93072
▁ശരീര	-8.93428
x	-8.93625
▁മീ	-8.93733
▁മരണ	-8.93777
▁പ്രസ്ഥാന	-8.93833
പ്രകാരം	-8.9396
▁സ്ഥാനം	-8.93998
▁അദ്ദേഹത്തെ	-8.93999
▁പ്രകാശ	-8.94035
കളുമായി	-8.94065
▁നീല	-8.94097
▁മൊ	-8.94131
▁കള	-8.94294
▁ശ്രദ്ധ	-8.94415
▁ഒക്ടോബർ	-8.94503
▁സേന	-8.94533
ാംഗ	-8.94537
▁മൂന്ന	-8.94538
▁അതിർത്തി	-8.94644
പ്പാ	-8.94755
ിൻ	-8.94778
ലുകൾ	-8.948
ുകളെ	-8.94812
സ്വ	-8.94953
20	-8.95002
▁പക്ഷേ	-8.9506
▁ഗ്ര	-8.95188
▁T	-8.95277
▁K	-8.95309
▁മാറ്റി	-8.95338
രാജ	-8.95411
▁‘	-8.95489
▁കുട്ടി	-8.95494
ദാ	-8.95541
▁കവി	-8.9555
▁ജാതി	-8.95566
▁ടെ	-8.95684
▁മുഴുവൻ	-8.95769
▁മൈ	-8.95854
parse	-8.95897
▁പ്രവർത്തിച്ച	-8.95897
ലോക	-8.95973
മ്പ്	-8.96251
ാക	-8.96253
▁അറിയ	-8.96278
utput	-8.96281
മില്ല	-8.96299
ha	-8.9631
▁ഇന്നു	-8.96322
▁ഗണ	-8.96368
▁മണി	-8.96371
നിര	-8.96456
പ്പെടുകയും	-8.96699
ഭവ	-8.96783
▁m	-8.9679
▁അഭിനയിച്ച	-8.96898
റ്റാ	-8.96949
ത്തേ	-8.97032
ാള	-8.97481
▁യാ	-8.97528
▁കീഴിൽ	-8.97571
ri	-8.97597
ിയായ	-8.97602
വായ	-8.97652
ര്യ	-8.97654
▁ഏതാണ്ട്	-8.977
▁ഏപ്രിൽ	-8.977
▁സ്ഥിര	-8.977
ാസ്	-8.97746
▁രക്ത	-8.97919
വന	-8.97943
▁അതിനു	-8.98052
▁വിദേശ	-8.98129
ായ്	-8.98164
▁ഔദ്യോഗിക	-8.98294
ാറ	-8.9837
▁വിദ്യാഭ്യാസം	-8.98383
,000	-8.98518
ല്പ	-8.98543
ിട്ടുള്ളത്	-8.98559
ിയ്ക്ക	-8.98608
▁ഡിസംബർ	-8.98614
▁ധ	-8.9862
▁ഇവയുടെ	-8.98621
▁മുള	-8.9865
▁എന്നത്	-8.9867
ദ്ര	-8.98803
യുടേയും	-8.99032
ണ്	-8.99039
ിട്ടില്ല	-8.9904
▁സമയ	-8.99116
▁ജീവി	-8.99249
ബന്ധ	-8.99278
ാൾ	-8.99333
മാക	-8.99365
ത്തും	-8.9937
▁നീ	-8.99429
ക്കുന്നു	-8.99526
▁കോഴിക്കോട്	-8.99634
വുമാണ്	-8.99636
▁ലഭിക്ക	-8.99665
▁:	-8.99741
▁സമര	-8.999
വിധ	-8.99962
ിയുടെ	-9.00118
▁ഭാര്യ	-9.00149
▁സ്ഥാപിച്ച	-9.00257
▁സെക്രട്ടറി	-9.00333
▁വേദ	-9.00353
േണ്ട	-9.00486
▁വെടി	-9.00535
▁അഞ്ചു	-9.00613
es	-9.00653
▁F	-9.00655
െല്ലാം	-9.00665
രണ	-9.00692
▁രണ്ടാമത്തെ	-9.00738
യ്ക്കും	-9.00762
▁വരെയുള്ള	-9.00903
പ്പോ	-9.00979
ുണ്ടായിരുന്നു	-9.01056
ിയും	-9.01103
▁ഗവേഷണ	-9.01141
കരണ	-9.01198
റ്റോ	-9.01272
▁ആക്രമണ	-9.01329
▁തേ	-9.01335
ിയൻ	-9.01354
▁സത്യ	-9.01425
തിന്	-9.01467
ർട്ട്	-9.01473
മര	-9.01493
▁ഇല്ല	-9.01541
പദ	-9.01545
6	-9.01596
▁നാഗ	-9.01611
ക്കെതിരെ	-9.01618
ിക്കുന്നത്	-9.01725
ത്താണ്	-9.01732
▁ജനങ്ങൾ	-9.01793
ലിന്റെ	-9.01794
▁പുരസ്കാരം	-9.0182
▁പാട	-9.0182
ല്യ	-9.0184
ിക്കപ്പെട്ട	-9.01848
▁റഹ്	-9.01859
പു	-9.01861
▁കണ്ടു	-9.01911
▁നടക്കുന്ന	-9.01953
▁പഞ്ചാബി	-9.02018
ദേവ	-9.02075
▁നവംബർ	-9.02083
ന്ധ	-9.02135
▁ദേശ	-9.02144
▁N	-9.02253
▁അറബി	-9.0226
ജെ	-9.02281
▁കിഴക്കൻ	-9.02291
▁മാത്രമാണ്	-9.02545
j	-9.02624
ഗർ	-9.02835
▁വിവര	-9.0289
▁ഘടക	-9.03035
▁സാമൂഹിക	-9.03105
▁ഫല	-9.03154
▁സ്വന്തം	-9.03451
▁തമ്മിലുള്ള	-9.03469
ാണെന്ന്	-9.03505
▁ഉപകരണ	-9.03586
ധ്യ	-9.03761
മെന്ന	-9.03782
▁30	-9.03858
ുകയാണ്	-9.03916
▁കാർ	-9.04034
▁കാലഘട്ട	-9.04044
േറ്റ്	-9.04299
▁സീ	-9.04564
▁മദ്ധ്യ	-9.0458
രീ	-9.0464
▁റഷ്യ	-9.04669
▁കാണപ്പെടുന്നു	-9.04722
▁കാരണ	-9.04804
▁ദ്വീപ	-9.04884
19	-9.04904
െടുക്ക	-9.04912
▁പ്രധാനപ്പെട്ട	-9.04915
▁കാണപ്പെടുന്ന	-9.04968
▁അനുഭവ	-9.05044
▁വടക്കൻ	-9.05111
ുമായിരുന്നു	-9.05218
▁മുൻപ്	-9.05394
▁പോക	-9.05475
▁ആരംഭിച്ച	-9.05536
▁കെട്ടിട	-9.05615
▁ഉപയോഗ	-9.05624
▁നടത്തുന്ന	-9.05737
▁ജോൺ	-9.05878
cs	-9.05888
▁അറിയപ്പെടുന്നത്	-9.05919
ദ്ധ്യ	-9.05944
ാലി	-9.06057
▁ക്ല	-9.06068
▁പഴ	-9.06186
ശ്ര	-9.06251
ിരുന്നില്ല	-9.0626
▁വംശ	-9.06532
▁യുദ്ധം	-9.06545
ബു	-9.06619
▁രാഷ്ട്ര	-9.0664
േണ്ടി	-9.06655
▁2010	-9.06685
▁ബല	-9.06686
▁പ്രദേശം	-9.06814
▁മത്സര	-9.06926
▁ഫോ	-9.07218
▁പൊതുവേ	-9.07255
▁പ്രവർത്തക	-9.0728
മായിരുന്ന	-9.07281
▁പട്ട	-9.07358
ലിൽ	-9.07419
ഭി	-9.07522
▁ഘ	-9.07538
▁ഭാഗമായി	-9.07573
▁I	-9.07597
▁സമയത്ത്	-9.07646
▁ഖാൻ	-9.07649
▁ചർച്ച	-9.07676
എന്നറിയപ്പെടുന്ന	-9.07889
▁ചിന്ത	-9.07977
▁കൊല്ല	-9.08057
മേഖല	-9.08101
വയ	-9.08111
▁സമിതി	-9.08185
▁ടീമ	-9.0822
▁ഭാഗം	-9.08287
I	-9.08346
പരി	-9.0844
▁ഗുണ	-9.08517
ങ്ങൾക്കു	-9.08624
പ്പെട്ടത്	-9.08643
മ്പി	-9.08694
▁സ്വയം	-9.08711
ഒ	-9.08713
കൊണ്ടു	-9.08716
വരയൻ	-9.08744
രാജ്യ	-9.08928
▁പകരം	-9.09014
മത	-9.09034
▁നിലയിൽ	-9.09137
ുന്നതിനു	-9.09209
▁പ്രാദേശിക	-9.09259
▁ഫെബ്രുവരി	-9.09259
▁പഞ്ചാബ്	-9.09259
▁പേ	-9.09275
il	-9.09325
ത്തുള്ള	-9.09473
▁നവ	-9.09534
▁നൂറ്റാണ്ടിൽ	-9.09561
▁ഘട്ട	-9.09695
ക്കേ	-9.0977
▁അവതരിപ്പിച്ച	-9.09804
▁യോഗ	-9.09826
▁റെയിൽ	-9.09961
▁വേഷ	-9.10011
നട	-9.10015
▁കൃഷ്ണ	-9.10211
▁ആര	-9.10216
തേ	-9.10296
▁മാർച്ച്	-9.10317
▁വളർച്ച	-9.10335
▁അറിയപ്പെടുന്ന	-9.10351
▁ചെയ്ത്	-9.10422
ഴ്	-9.10431
▁പതി	-9.10536
ീന	-9.10637
▁തിരഞ്ഞെടുക്ക	-9.10729
യുണ്ട്	-9.10789
▁തരം	-9.1081
▁ഉയര	-9.10881
▁അദ്ദേഹത്തിന്	-9.10952
കളിലെ	-9.11002
▁നാമ	-9.11212
ച്ഛ	-9.11268
▁ഇതിന്	-9.11392
യാന	-9.11395
▁ദൃശ്യ	-9.1145
▁തിരു	-9.11477
▁പ്രസിദ്ധ	-9.11477
ro	-9.11505
പാദ	-9.11561
തിനെ	-9.11655
ുണ്ടായിരുന്ന	-9.11659
▁അവയുടെ	-9.11707
▁തുടർന്നു	-9.11782
▁ആളുകൾ	-9.11844
▁പക്ഷി	-9.11922
വല	-9.12034
ഞ്ജ	-9.12034
▁ഞ	-9.12193
▁ഒരേ	-9.12262
▁ജൂലൈ	-9.12377
▁രംഗ	-9.12442
ുകളാണ്	-9.12448
രിക്ക	-9.12572
▁നൽകുന്ന	-9.12628
ാണ	-9.12716
റിൽ	-9.12721
നിറ	-9.12755
തെന്ന്	-9.12811
▁ലക്ഷ്യ	-9.12881
ോർ	-9.12907
▁തവണ	-9.12937
ിനി	-9.12939
ുന്നതിനായി	-9.12976
▁ശബ്ദ	-9.13121
▁അർ	-9.13169
▁കഴിയ	-9.13257
തെ	-9.13264
ട്രി	-9.13362
▁ചു	-9.13381
ഭാ	-9.13415
്യാ	-9.13468
ad	-9.13507
▁ശതമാനം	-9.13509
▁കല്ല	-9.13518
▁കടന്നു	-9.13526
▁കണ്ടെത്തിയ	-9.13605
ുളള	-9.13625
▁പ്രാ	-9.13631
ഷാ	-9.13711
എൽ	-9.13758
ടെ	-9.13786
▁സ്വാതന്ത്ര്യ	-9.13794
▁ഓണ	-9.13798
▁സമീപ	-9.13805
കാലം	-9.13822
▁സൂചിപ്പിക്കുന്ന	-9.13847
▁ഒറ്റ	-9.13942
ൂര	-9.13956
▁ഷി	-9.13966
ാനു	-9.14044
▁ഹിന്ദി	-9.14053
▁c	-9.14107
▁24	-9.14139
യൻ	-9.14171
▁ജനറൽ	-9.14196
▁പട	-9.14245
▁എണ്ണം	-9.14292
▁വിദ്യാർത്ഥി	-9.14293
▁അപ	-9.14349
▁b	-9.14429
ഫോ	-9.14447
um	-9.14456
പര	-9.14516
▁കാര	-9.14616
▁നഗരം	-9.14837
വൈ	-9.14854
ധി	-9.14925
പ്രവർത്തന	-9.1493
ജ്ഞ	-9.15211
▁വടക്കു	-9.15247
ിച്ചത്	-9.15285
▁ഭക്ഷണ	-9.15307
▁ഖാ	-9.1535
▁വിധ	-9.15377
la	-9.15388
▁അന	-9.15423
▁ചക്രവർത്തി	-9.15426
50	-9.15469
▁സംവിധാന	-9.15471
▁പറയുന്ന	-9.15624
ുകളിലും	-9.15792
ടുത്ത	-9.15807
േശ്വര	-9.15825
▁കോൺഗ്രസ്	-9.15853
സംഘ	-9.15855
ക്കാല	-9.16014
ർത്ഥ	-9.16101
▁കൊച്ചി	-9.16102
▁ചേർന്നു	-9.16114
▁ഇദ്ദേഹത്തിന്റെ	-9.16152
▁പഞ്ചായത്ത	-9.16159
▁ഉണ്ടായിരുന്നു	-9.16287
ലൈ	-9.16288
ia	-9.16337
▁മലമ്പ	-9.16371
ബ്ര	-9.16558
▁പുഴ	-9.16578
▁അതിനാൽ	-9.16668
ത്തിന്റെയും	-9.16744
ങ്ങളിലൂടെ	-9.16808
▁മണ്ണ	-9.16974
ബെ	-9.17008
▁വരുന്നു	-9.17027
മ്പകം	-9.17055
▁വടക്കേ	-9.17062
▁ശാഖ	-9.17076
▁കുറവ	-9.17087
േഴ്സ്	-9.17138
ോൾ	-9.17173
▁അക	-9.17193
▁സച്ചിൻ	-9.172
ാട	-9.17367
പ്പൈൻ	-9.17367
▁സൈന്യ	-9.17408
▁മഹ	-9.17423
ിക്	-9.17441
തായിരുന്നു	-9.17593
െന്ന	-9.17696
▁വെച്ച്	-9.17699
▁ചെയ്തത്	-9.17847
ന്മാരുടെ	-9.17852
▁ഫെ	-9.1798
▁സാധാരണയായി	-9.18088
ത്തോളം	-9.18093
സൂ	-9.181
ുന്നതിനും	-9.18167
ിഷ്	-9.18204
▁വയസ്സിൽ	-9.18284
▁അല	-9.18319
▁വ്യാപാര	-9.18338
സിയ	-9.18488
വ്യ	-9.18529
▁ഭാഷാ	-9.18582
▁പദവി	-9.1876
▁കണക്കാക്ക	-9.18767
em	-9.18805
▁ജൂൺ	-9.18818
▁0	-9.18846
ാലും	-9.18921
▁to	-9.19135
.19	-9.19153
ുമുള്ള	-9.19162
▁ലോകത്തിലെ	-9.19218
▁കമ്മ്യൂണിസ്റ്റ്	-9.19306
▁ടോ	-9.1931
▁കാണുന്ന	-9.19314
▁ഉൾപ്പെടുന്ന	-9.1943
▁അവതരിപ്പിക്ക	-9.19547
▁വിപ്ലവ	-9.19557
▁ആൻഡ്	-9.19558
റുകൾ	-9.19583
ത്താൽ	-9.19633
▁തീരുമാന	-9.19648
േഷ്യ	-9.19659
ർത്തി	-9.1978
ാവുന്നതാണ്	-9.199
▁ആരംഭിച്ചു	-9.19907
ൃത	-9.19987
▁കടല	-9.20053
▁മന	-9.20062
ായിരിക്കും	-9.20081
കൾക്കും	-9.20087
▁R	-9.20096
ദർ	-9.20144
▁തിര	-9.20144
▁പണ്ഡിത	-9.20146
▁പട്ടിക	-9.20175
ധാര	-9.20179
▁അട	-9.20432
മൻ	-9.20454
▁പ്രതിരോധ	-9.2057
▁വിവാഹ	-9.20582
ണിയ	-9.20607
നായിരുന്ന	-9.20658
▁വളർത്ത	-9.20742
▁അരി	-9.20795
ണമെന്ന	-9.20817
ിക്കുക	-9.20862
വരും	-9.20923
▁ഇവരുടെ	-9.20926
▁റെ	-9.20958
▁നിൽക്കുന്ന	-9.20997
un	-9.2112
▁പഠനം	-9.2118
▁വ്യത്യാസ	-9.21187
▁p	-9.21278
ിന്റെയും	-9.21361
▁കൊണ്ടു	-9.21388
▁വൃത്ത	-9.2147
പ്പെടുന്നത്	-9.21622
സ്സ്	-9.2164
ശക്തി	-9.21642
▁പെട്ട	-9.21647
▁കോടി	-9.21652
▁പടിഞ്ഞാറൻ	-9.21696
▁ഉൾപ്പെടുന്നു	-9.21705
▁മനസ്സിലാക്ക	-9.21898
▁സൗകര്യ	-9.21903
▁ഗ്രഹ	-9.21923
▁ബ്രിട്ട	-9.22023
▁ആഴ	-9.22035
▁ഭാരതീയ	-9.22046
▁ഒന്നാണ്	-9.22097
▁അക്ഷര	-9.22193
ത്തോട്	-9.22211
റേ	-9.2227
ക്കെ	-9.22344
▁പ്രവർത്തനങ്ങൾ	-9.22346
▁നമ്പൂതിരി	-9.22405
ക്കർ	-9.22435
▁ഇന	-9.22531
▁ഉപയോഗിച്ചു	-9.22551
റ്റർ	-9.22559
▁സംസ്കാര	-9.22583
ബ്ബ	-9.22634
▁2009	-9.22676
പുരം	-9.22839
മ്പു	-9.22848
▁പ്രതിഷ്ഠ	-9.22863
▁വികസന	-9.22872
▁പിതാവ	-9.22878
ാരി	-9.22902
▁സേവന	-9.22926
▁27	-9.22936
▁യുദ്ധത്തിൽ	-9.22979
യോഗ	-9.22991
▁നിർമിച്ച	-9.23005
വർഷ	-9.23051
ഈ	-9.2315
▁നിർദ്ദേശ	-9.23192
▁പറയുന്നത്	-9.23198
കൃത	-9.23284
▁വ്യവസ്ഥ	-9.23304
സൈ	-9.23321
▁2012	-9.23346
ട്ടിൽ	-9.23355
ണാ	-9.23407
ul	-9.23424
ങ്ങളില	-9.23425
▁ഭരണം	-9.23472
▁W	-9.23483
ഖാ	-9.23517
▁ദു	-9.23681
▁പ്രശ്ന	-9.23692
വിനെ	-9.23761
െയ്	-9.23776
ാദ	-9.23819
ഞ്ചി	-9.23877
▁പൂർണ്ണ	-9.239
യോട്	-9.23924
മായാണ്	-9.23967
▁തന്നെയാണ്	-9.24129
▁ഖു	-9.24141
▁കഴിവ	-9.24293
ചിത്ര	-9.24318
▁അണക്കെട്ട	-9.24346
ത്തിലേ	-9.2447
▁പുറമേ	-9.24539
വഴി	-9.24562
▁താര	-9.24679
▁ചുവന്ന	-9.2471
el	-9.24724
ുന്നതും	-9.2477
▁മാത്ര	-9.24834
▁ഉണ്ടാക	-9.24934
ഢ	-9.25007
▁അതേ	-9.25057
ള്ളി	-9.25154
▁സെപ്റ്റംബർ	-9.25198
as	-9.25285
▁മുൻപ	-9.25463
▁ഗാന്ധി	-9.25641
പോലെ	-9.25704
കഥ	-9.25795
നിന്നു	-9.25918
▁പ്രകൃതി	-9.25926
കേ	-9.25934
വർഷം	-9.25935
▁നിരീക്ഷണ	-9.25952
▁വരി	-9.25981
▁അവരെ	-9.26008
കൊ	-9.26044
ഗ്രന്ഥ	-9.26077
▁മുമ്പ്	-9.26165
▁ജമാഅത്ത	-9.2623
▁മൂല	-9.26255
▁ഇവയെ	-9.26387
▁ശൈലി	-9.26412
ുകൾക്ക്	-9.26503
▁അഭിനയ	-9.26628
മർ	-9.26631
▁ചെടി	-9.26646
▁ഇന്നത്തെ	-9.26663
▁എൽ	-9.26843
▁ചേ	-9.26856
▁നൃത്ത	-9.26871
▁സഹോദര	-9.26892
മാണെന്ന	-9.26901
ത്തേയും	-9.27011
▁യൂറോപ്യൻ	-9.27066
z	-9.27101
▁രേഖ	-9.27103
st	-9.27122
ഡാ	-9.27129
▁ദൂരദർശിനി	-9.27253
▁അവാർഡ്	-9.27273
ോട്ട	-9.27321
▁ജനിച്ച	-9.27387
യിട	-9.27406
▁21	-9.27455
ir	-9.27568
▁ഭൂമിശാസ്ത്രവു	-9.27579
െങ്കിൽ	-9.27637
മണി	-9.27638
▁w	-9.27665
▁22	-9.27729
യോടെ	-9.27817
കൊണ്ട	-9.27855
▁കവിത	-9.27882
▁അവസ്ഥ	-9.27901
▁വിമാന	-9.27965
▁ജന്മ	-9.28077
▁ഇവയിൽ	-9.28093
േർ	-9.28129
കാർ	-9.2839
സൺ	-9.28468
▁23	-9.2849
▁തിരിച്ചു	-9.2853
▁വിശ്വ	-9.28531
▁ഇതേ	-9.28541
ക്കള	-9.28543
▁കാലം	-9.28545
കൃഷ്ണ	-9.28705
ങ്ങളെയും	-9.28723
▁ദൂര	-9.28772
▁തെക്കു	-9.28779
ിയോ	-9.2884
▁ചിത്രങ്ങൾ	-9.28853
▁എന്നിവിടങ്ങളിൽ	-9.28857
▁ഒര	-9.28865
തര	-9.28902
ങ്ങളുണ്ട്	-9.2897
▁രാസ	-9.28975
▁മാതൃക	-9.29064
▁വിട	-9.29074
▁വിവരങ്ങൾ	-9.29084
18	-9.29143
▁“	-9.29154
▁കഥാപാത്ര	-9.29176
▁ഇസ്ലാമിക	-9.29213
മാരുടെ	-9.29233
പ്പിച്ച	-9.29248
▁ബേ	-9.29266
▁കാണുന്നു	-9.29286
▁ഡയ	-9.2932
ങ്ങളുടെയും	-9.29325
ഗ്ഗ	-9.29346
വാര	-9.29374
ുകൊണ്ട്	-9.29419
ുമ	-9.2949
▁ഉന്നത	-9.29739
▁f	-9.29783
▁സംഖ്യ	-9.29801
16	-9.29831
വൽ	-9.29832
പ്പെടുത്തി	-9.29887
▁മുതല	-9.29895
▁പോകുന്ന	-9.29943
ഓ	-9.29973
▁പുറത്തു	-9.30029
ുന്നതിൽ	-9.30031
▁ഏഷ്യ	-9.30106
▁ഉത്സവ	-9.30109
▁ശതക	-9.3015
▁ശരാശരി	-9.30287
▁മുഗൾ	-9.30287
ഹോ	-9.30321
▁അടങ്ങിയ	-9.30384
ാലയ	-9.30388
▁വാഹന	-9.30392
▁ഉപഗ്രഹ	-9.3049
▁മക്ക	-9.30507
▁യന്ത്ര	-9.30631
മൂ	-9.30681
ത്രി	-9.30715
▁നാല്	-9.30718
ഹു	-9.30776
▁വാണിജ്യ	-9.30829
15	-9.30846
▁ക്ര	-9.3095
▁ഫ്ര	-9.31061
▁ആയിരുന്ന	-9.31088
ശ്ശേരി	-9.31172
▁അനേകം	-9.31191
▁തെക്കൻ	-9.31207
▁പന്ത	-9.31277
▁താമസ	-9.31332
ോടൊപ്പം	-9.31395
▁ഗോത്ര	-9.31432
▁നോ	-9.31484
വരുടെ	-9.31543
ിങ്ങ്	-9.31547
▁പീ	-9.31769
ുന്നതിനുള്ള	-9.31791
▁അന്നത്തെ	-9.31823
േയ	-9.31886
▁ശക്തമായ	-9.31896
▁മുകളിൽ	-9.31992
P	-9.3201
ഗ്രാ	-9.32268
മാറ്റ	-9.32281
പ്പള്ളി	-9.32305
പക്ഷ	-9.3238
▁പ്രത്യേകത	-9.32413
ുണ്ടാകുന്ന	-9.32486
വർമ്മ	-9.3249
ശീല	-9.32499
സഹായത്തിനു	-9.32779
▁എത്തിയ	-9.32793
▁സമ്മാന	-9.32841
▁E	-9.32876
▁അന്ന്	-9.3293
പാട	-9.32983
കളില	-9.32984
ma	-9.33062
മാസ	-9.33123
ാവസ്ഥ	-9.33124
▁റാണി	-9.33125
▁അധികം	-9.33128
വരാണ്	-9.3315
ുമായുള്ള	-9.33234
▁രക്ഷ	-9.33242
ക്കാലം	-9.33252
പ്പെട്ടിട്ടുണ്ട്	-9.33568
ടിയ	-9.33598
▁പൂവ	-9.33621
–	-9.33694
യിലേക്കു	-9.3379
▁കോളേജ	-9.33792
▁കൂടെ	-9.33839
▁പുള്ളി	-9.33849
.5	-9.33873
▁നിർ	-9.33902
▁ജീവ	-9.33906
▁അന്തരീക്ഷ	-9.33954
സ്റ്റർ	-9.34048
▁2000	-9.34138
വർഗ	-9.34153
▁കരി	-9.34329
et	-9.3445
മെന്റ	-9.34457
▁മേൽ	-9.34468
▁100	-9.34529
▁യൂറോപ്പ	-9.34551
▁മാന	-9.3463
▁അഭി	-9.34652
തിര	-9.3466
▁ഭരണാധികാരി	-9.34705
ത്തോ	-9.34822
ഗ്ന	-9.34838
▁ചെയ്യാൻ	-9.34862
8	-9.34891
ബോധ	-9.34896
▁മുഖ	-9.34926
▁നു	-9.34981
hi	-9.35023
▁ഉത്	-9.35026
ുകയോ	-9.3505
▁അപ്പ	-9.3508
ാനാ	-9.3514
▁ത്രി	-9.35147
▁ഇന്ത്യാ	-9.35178
▁പ്ലാ	-9.35185
▁ലാമി	-9.35209
▁ഉട	-9.3523
▁സാംസ്കാരിക	-9.35259
▁കറുത്ത	-9.35316
▁ഉപയോഗിച്ചിരുന്ന	-9.35444
▁ക്രിക്കറ്റ്	-9.35456
ഡെ	-9.35463
▁പ്രതിനിധി	-9.35471
▁ഭാ	-9.35475
ക്ഷി	-9.35619
▁സ്കൂള	-9.35674
▁എന്നതാണ്	-9.35681
▁ദേവി	-9.35745
25	-9.3578
▁അസ	-9.35856
▁റോഡ	-9.35869
ശലഭം	-9.35916
▁ജനിച്ചത്	-9.35924
▁പ്രാചീന	-9.36029
▁ബഹിരാകാശ	-9.36029
ത്തെയും	-9.36148
30	-9.36187
▁നിറഞ്ഞ	-9.36194
▁നാട	-9.36197
▁നടന്നു	-9.36203
കൾക്കു	-9.36227
▁കാഴ്ച	-9.36234
▁സാങ്കേതിക	-9.36238
ിരിക്ക	-9.36314
▁മുമ്പ	-9.36318
▁തുർക്കി	-9.36412
▁തട	-9.36455
ഭാഗം	-9.36522
ീകരിച്ച	-9.36553
M	-9.36562
▁താപനില	-9.36613
ളം	-9.36652
▁ഭാഗങ്ങൾ	-9.36696
ക്കൂ	-9.36734
▁യഹോവ	-9.36795
▁മൂന്നാം	-9.369
പ്രദേശങ്ങള	-9.3691
▁ബീ	-9.36978
▁കുട	-9.37016
▁ഇഷ്ട	-9.37094
ബീ	-9.37111
തരം	-9.37152
▁ഡൽഹി	-9.3718
പാല	-9.37442
ചെ	-9.37459
▁സിദ്ധാന്ത	-9.37465
▁സഹായ	-9.37539
▁പരമ്പരാഗത	-9.37566
▁സ്വഭാവ	-9.37583
സേന	-9.37632
▁സർവകലാശാല	-9.3769
▁തിരുവനന്തപുരം	-9.3776
▁ബ്രിട്ടീഷുകാർ	-9.3776
ക്കുക	-9.37763
▁മുട്ട	-9.37866
▁സ്ഥാപിക്ക	-9.37872
▁പരിപാടി	-9.37962
▁V	-9.37988
▁വടക്ക്	-9.38008
മാത്ര	-9.38119
▁സൗദി	-9.38164
ിയത്	-9.38232
▁പരസ്പര	-9.38344
▁മുസ്ലിം	-9.38347
▁ആവ	-9.38354
▁കോടതി	-9.38354
ുള്ളൂ	-9.38411
▁പരമ്പര	-9.38423
ത്തുമ്പി	-9.38428
v	-9.3844
▁നിയന്ത്രണ	-9.38601
▁പിതാവ്	-9.38601
▁സ്വാധീന	-9.38673
പഥ	-9.38736
▁പറഞ്ഞു	-9.38765
നിയമ	-9.38774
▁ഫോർ	-9.38784
നിന്ന്	-9.388
▁ബുദ്ധ	-9.38818
ലൂ	-9.38858
െന്ന്	-9.38997
▁അന്ത്യ	-9.39038
ക്കൊ	-9.39058
▁ഓർ	-9.39127
▁വിദ്യാലയ	-9.39135
▁പങ്കു	-9.39159
▁മത്സരത്തിൽ	-9.39186
▁രാ	-9.39214
▁കുറ്റ	-9.39245
▁സ്വീകരിച്ച	-9.39253
▁പിൻ	-9.39269
ഗി	-9.39319
▁മന്ത്രി	-9.39348
▁ജില്ലയുടെ	-9.39439
▁ലക്ഷ്യം	-9.39559
േരി	-9.39563
ണ്ടു	-9.39626
▁സർക്കാര	-9.39691
▁രാത്രി	-9.39721
▁തെക്കേ	-9.39744
▁ചടങ്ങ	-9.39745
ഗണ	-9.39847
വിട	-9.39861
▁ചുമതല	-9.39926
ന്യ	-9.39933
▁26	-9.39944
▁ഇര	-9.4003
▁വച്ച	-9.4004
▁ചിത്രത്തിൽ	-9.40099
രണം	-9.40159
▁പിന്തുണ	-9.40168
ിച്ചിരുന്നു	-9.40174
▁പോയി	-9.40182
▁തുടക്കം	-9.40244
രാമ	-9.40251
▁രണ്ട	-9.40293
▁ഔഷധ	-9.40314
▁ചര	-9.40334
▁ഞാൻ	-9.40346
▁റെയിൽവേ	-9.40365
യാണു	-9.40373
▁ആചാര	-9.40487
ശേഖര	-9.40536
99	-9.40539
▁കാലഘട്ടത്തിൽ	-9.40589
യേയും	-9.40694
▁കഴിയുന്ന	-9.40738
വർക്ക്	-9.40801
▁പോലീസ്	-9.4094
▁വകുപ്പ	-9.40961
▁തൊഴിലാളി	-9.41027
പ്പെടുത്തിയ	-9.41099
▁ഓഗസ്റ്റ്	-9.41114
▁കാണുക	-9.41196
മൂല	-9.41221
▁ഭാഷയിൽ	-9.41389
▁എന്നിവയും	-9.41391
▁L	-9.41408
സ്കോ	-9.41428
▁അതിനെ	-9.415
▁പ്രവർത്തനം	-9.41592
▁തുടര	-9.41687
▁കിട്ടിയ	-9.4175
od	-9.41769
▁മത്സ്യ	-9.41792
▁അവർക്ക്	-9.41824
സ്ഥല	-9.41906
▁ആകാശ	-9.41913
ദു	-9.41942
▁ചതുരശ്ര	-9.41994
കളുടെയും	-9.4205
▁ഉപയോഗിക്കുന്നത്	-9.42079
നാഥ	-9.42095
▁50	-9.42102
കളി	-9.42142
▁2001	-9.42157
▁സ്റ്റ	-9.42168
lo	-9.42173
▁വിശേഷിപ്പിക്ക	-9.42253
വരുന്ന	-9.42269
ട്രോ	-9.4232
ക്കാരുടെ	-9.42324
▁റൂ	-9.42326
ന്തു	-9.4238
▁പാരമ്പര്യ	-9.42455
▁തെക്ക്	-9.42493
▁വിര	-9.42499
▁വിഭാഗത്തിൽ	-9.42501
▁ഘടന	-9.42574
▁തര	-9.42596
▁വില്ല	-9.42659
▁എത്ത	-9.42675
ഠ	-9.4271
ല്ലാതെ	-9.42862
▁പൂജ	-9.43031
▁ധന	-9.43052
▁ശി	-9.43115
വാന	-9.43147
കളിലൂടെ	-9.43172
▁ഫലമായി	-9.43186
▁വിളിക്കുന്നു	-9.4325
se	-9.4326
ൊന്ന	-9.43272
▁ബ്രഹ്മ	-9.43311
▁സംബന്ധിച്ച	-9.43344
▁പ്രവർത്തിച്ചു	-9.43345
▁ആരോഗ്യ	-9.43345
▁മലയാളചലച്ചിത്ര	-9.43349
ർമ്മ	-9.43381
ചര	-9.43382
▁എഴുത്തുകാര	-9.4353
പഠന	-9.4354
ഗ്രഹ	-9.43576
▁ചക്ര	-9.4359
▁ബിൻ	-9.43593
സിലെ	-9.43613
▁രാജ്യങ്ങളിൽ	-9.4362
വംശ	-9.4367
▁ലോഹ	-9.43719
▁2013	-9.43768
▁ഗ്രാ	-9.43802
▁പ്രയോഗ	-9.4382
▁കാവ്യ	-9.43841
▁പറ	-9.43869
▁സ്പ	-9.43869
▁എന്നിവയുടെ	-9.43878
▁ഗതാഗത	-9.43919
▁ക്രമ	-9.43932
000	-9.43938
നാർ	-9.4396
▁സൂഫി	-9.43986
യെന്ന	-9.4401
ാക്	-9.44079
▁ചോ	-9.44091
▁യഥാർത്ഥ	-9.44171
▁പോലും	-9.44262
സും	-9.44321
ന്ന്	-9.44361
▁മുംബൈ	-9.44377
▁മന്ത്ര	-9.44397
▁ശാസ്ത്രീയ	-9.4444
ഞ്ച്	-9.44485
▁പ്രോ	-9.44497
▁ചേർത്ത്	-9.44501
പതി	-9.44535
ർണ	-9.4455
▁കേസ	-9.44575
▁ലഭിക്കുന്ന	-9.44631
▁പ്രധാനമന്ത്രി	-9.44636
▁ചിത്രത്തിന്റെ	-9.44658
▁ചെയ്തിരുന്നു	-9.44689
ാണിത്	-9.44718
പ്പൻ	-9.44731
▁അദ്ധ്യായ	-9.45
▁ഇവിടത്തെ	-9.45
▁കാർഷിക	-9.45006
▁ആറു	-9.45045
▁വിശ്വാസം	-9.45079
ോറ	-9.45186
കിട	-9.45197
സര	-9.45219
▁ചൂട	-9.45233
▁പണി	-9.45265
R	-9.45276
▁കലാപ	-9.45317
ാദി	-9.45483
▁ദർശന	-9.455
12	-9.45502
▁ജില്ലയിൽ	-9.4551
പ്പെട്ടിരുന്നു	-9.45562
▁ഉൾ	-9.45564
ൻഡ്	-9.45569
▁ആശുപത്രി	-9.45627
▁നീർ	-9.45628
▁കൊടുത്ത	-9.45728
▁പറയപ്പെടുന്നു	-9.45752
▁ഇതിന	-9.45755
▁വാഴ	-9.45767
▁ശലഭം	-9.45772
പെട്ട	-9.45832
▁വിശുദ്ധ	-9.45837
▁നായർ	-9.45863
ദർശന	-9.45878
▁ഉയരം	-9.45914
▁സാമ്രാജ്യം	-9.45936
▁തൂ	-9.45979
പാത	-9.46071
കൂടി	-9.46091
▁പാശ്ചാത്യ	-9.46259
വള	-9.4637
ിക്കൽ	-9.464
താവ	-9.46454
▁വിതരണം	-9.46455
▁പ്രാഥമിക	-9.4647
കാശ	-9.46474
ദ്യ	-9.46504
▁എന്ത	-9.46677
▁വിധേയ	-9.46684
മാല	-9.4684
ർപ്പ	-9.46856
ോപ	-9.46871
▁ഐതിഹ്യ	-9.46898
▁കണ്ണൂർ	-9.46973
ക്കിടയിൽ	-9.47003
▁2008	-9.47064
▁കരുതുന്നു	-9.47088
െത്തി	-9.47115
▁വിട്ടു	-9.47132
▁രാജാവ്	-9.4719
▁പോലുള്ള	-9.47223
▁കറ	-9.47263
ശാസ്ത്രം	-9.47284
▁കാലാവസ്ഥ	-9.47377
പ്പന	-9.47546
മാവ	-9.47566
▁പ്രവാചക	-9.47619
11	-9.47621
B	-9.47627
ഗു	-9.47661
പ്രവർത്തിക്കുന്ന	-9.47803
ടാ	-9.4782
O	-9.47844
കർത്താ	-9.47845
te	-9.47865
▁താൻ	-9.47882
▁വിഭാഗം	-9.47914
നാട്	-9.47918
▁2006	-9.47924
റായി	-9.47941
▁ലഘു	-9.47964
▁ഉണ്ടാകുന്ന	-9.47978
▁പുറത്ത	-9.4798
▁പിന്ന	-9.48002
കളെയും	-9.4806
ശ്വ	-9.48083
▁ധർമ്മ	-9.48084
▁ഏതാനു	-9.48212
സിനെ	-9.48214
▁മെയ്	-9.48233
▁ആൽബ	-9.48256
ച്ചാ	-9.48273
▁പോയ	-9.48284
ാണി	-9.48294
▁വിധി	-9.48322
▁ലൈ	-9.48344
▁കൽ	-9.48369
യെയും	-9.48393
ദ്ദ	-9.48394
▁തിരക്കഥ	-9.48407
▁മാത്രമല്ല	-9.48442
▁സൂ	-9.48482
▁അടിസ്ഥാനമാക്കി	-9.48501
ab	-9.4851
▁അസ്	-9.48612
▁ഗണിത	-9.48616
ബല	-9.48624
മിയ	-9.48652
▁ആഘോഷ	-9.48678
▁നയ	-9.48901
▁കരുതപ്പെടുന്നു	-9.48913
▁ശിക്ഷ	-9.48915
▁പ്രസിദ്ധീകരണ	-9.49021
▁തടി	-9.49023
▁ഉണ്ടാക്ക	-9.49036
▁സ്വീകരിക്ക	-9.49054
▁ഓഫീസ	-9.49057
ce	-9.49152
▁വെള്ളി	-9.49154
ഏ	-9.49155
H	-9.49158
വാർ	-9.49161
നുസരിച്ച്	-9.49164
▁ഗാനങ്ങൾ	-9.49215
ay	-9.49224
▁തുറമുഖ	-9.4926
▁ആഫ്രിക്ക	-9.49279
ഫല	-9.49311
▁ഈജിപ്ത	-9.49364
▁പശ്ചിമ	-9.49472
ാത	-9.49476
കരമായ	-9.49496
▁നിയമം	-9.4952
▁The	-9.49536
▁അക്കാലത്ത്	-9.49548
▁സൃഷ്ടിക്ക	-9.49578
ിയിൽ	-9.49608
ക്കിയ	-9.49682
▁തടയ	-9.49695
▁മെസ്സി	-9.49728
▁ചേർത്ത	-9.49731
▁ദ്	-9.49736
▁എഴുതി	-9.49766
T	-9.49817
▁നിയന്ത്രിക്ക	-9.49917
▁വെള്ളം	-9.49926
ത്തേക്ക്	-9.49937
രചന	-9.49955
▁ഭരണഘടന	-9.49968
▁ഗംഗ	-9.49971
സ്റ്റോ	-9.49983
▁പുറ	-9.49985
വിള	-9.50014
▁അറിയപ്പെട്ട	-9.50133
▁തെറ്റ	-9.50153
ക്കാണ്	-9.50291
ൂള	-9.50344
േത	-9.50348
മില്ലാത്ത	-9.50467
▁പ്രാധാന്യം	-9.50491
41	-9.50499
▁മേഖലയിൽ	-9.5052
▁മൊത്തം	-9.5058
▁സ്വകാര്യ	-9.50595
▁വിശേഷ	-9.50616
ങ്ങളിലാണ്	-9.50629
ട്ടാ	-9.50659
▁അഗ്നി	-9.50681
വാഹ	-9.5072
▁അർത്ഥ	-9.50728
ൈറ്റ്	-9.5079
ിട്ടു	-9.50822
▁കോളേജിൽ	-9.50869
▁ജനത	-9.50882
▁d	-9.51001
▁ഉദയ	-9.51032
▁ലിം	-9.51062
രിക	-9.51081
മെന്റ്	-9.51167
▁കീ	-9.51178
▁അന്തരിച്ചു	-9.51211
▁വീതി	-9.51213
38	-9.51227
▁എന്റെ	-9.51298
▁കഴിഞ്ഞു	-9.51379
മുറ	-9.51391
യാണിത്	-9.51406
▁അറേബ്യ	-9.5146
▁ദിന	-9.5157
▁വന്നത്	-9.51634
പത്ര	-9.51651
▁കുന്ന	-9.51775
ക്കാട്	-9.51779
ങ്ങളുടേയും	-9.51781
▁ഉണ്ടായിരുന്ന	-9.51785
▁ആം	-9.51885
▁ഫ്രഞ്ച്	-9.51917
▁വിഷ്ണു	-9.51961
▁വട്ട	-9.52059
▁ഈസ്റ്റ്	-9.52288
▁സമാധാന	-9.52357
ത്തിന്റേയും	-9.52379
▁നേതൃത്വം	-9.52507
▁ഒഴിവാക്ക	-9.52579
▁വിളിക്ക	-9.52598
▁നബി	-9.5269
D	-9.52741
▁പ്രസിഡന്റ്	-9.52743
▁ശാസ്ത്രജ്ഞ	-9.52754
▁ചികിത്സ	-9.52778
ശാ	-9.5279
▁28	-9.52791
▁അറിവ	-9.52793
യാള	-9.52976
▁വസ്ത്ര	-9.53031
വാദി	-9.53031
ിനോട്	-9.53115
▁എഴുത	-9.53116
ന്ദി	-9.53139
▁സമുദായ	-9.5317
ത്തിനെ	-9.53241
▁2014	-9.53268
no	-9.53303
മൺ	-9.53315
▁നടക്ക	-9.53335
ാർത്ഥ	-9.53372
▁ഏഴു	-9.53423
ta	-9.53428
li	-9.5345
▁വർണ്ണ	-9.53452
ാവശ്യ	-9.53481
▁തൃശ്ശൂർ	-9.53483
▁അഞ്ച്	-9.53488
▁സജീവ	-9.5349
}	-9.53493
▁നേ	-9.53532
രിൽ	-9.5359
▁പാകിസ്താന	-9.53598
▁പതിപ്പ	-9.53627
കട	-9.53696
▁ചങ്ങനാശ്ശേരി	-9.5371
▁ബംഗാൾ	-9.5371
▁സ്ഥാപക	-9.53711
▁പകുതി	-9.53899
▁മലയ	-9.53909
▁വാസ	-9.54007
െന്നു	-9.54015
▁രജ	-9.54016
ത്തവള	-9.54023
▁ബന്ധം	-9.54036
id	-9.54093
ചെയ്യ	-9.54106
ണമെന്ന്	-9.54138
▁സംസ്ഥാനത്തെ	-9.54203
▁പരാമർശ	-9.54207
▁കുള	-9.54246
ബിയ	-9.54274
▁നീണ്ട	-9.54305
പൊ	-9.54308
▁ഷോ	-9.54322
▁താലൂക്ക	-9.54368
▁അനുസരിച്ച്	-9.54393
ട്ടോ	-9.54404
ൻറ്	-9.54405
▁മലബാർ	-9.54408
ക്കട	-9.5445
ോസ്	-9.5448
▁കുറു	-9.54489
സംഖ്യ	-9.54573
റിഞ്ഞ	-9.54593
▁ശ്രീലങ്ക	-9.54625
▁ഫിലിം	-9.5463
▁വൃക്ഷ	-9.54671
▁പുരാണ	-9.54675
▁ലക്ഷം	-9.54725
കാര്യ	-9.5477
▁വാക്ക	-9.54854
േന്ദ്ര	-9.54903
▁ഒടുവിൽ	-9.55085
ഥി	-9.5513
▁ഫൈ	-9.55247
▁Airport	-9.55316
▁ചേർക്ക	-9.5538
36	-9.55391
▁ഭാര	-9.55418
▁ബോധ	-9.55424
▁വല	-9.5545
ഹിത	-9.55505
ാടി	-9.55526
നാമ	-9.55563
▁നിലപാട	-9.55586
ൻറെ	-9.55636
▁രാജ്	-9.55684
65	-9.55695
ത്തിനുശേഷം	-9.55698
▁ഔ	-9.55716
നഗര	-9.55721
ൊന്നും	-9.55728
തിരി	-9.55745
▁അക്ക	-9.55833
കൂട	-9.55846
▁ആരംഭ	-9.55869
▁സംഗീതം	-9.55898
▁ലേ	-9.5599
വിശ്വാസ	-9.55991
▁നാരായണ	-9.56049
▁സ്വർണ്ണ	-9.56059
▁പ്രദേശങ്ങളിൽ	-9.56073
▁ഗോപുര	-9.56172
▁പദം	-9.56214
▁റീ	-9.56243
വസ്തുക്കള	-9.56249
▁മുന്ന	-9.56273
▁പരീക്ഷ	-9.5632
ധന	-9.56325
▁പാറ	-9.56338
▁ക്	-9.56359
▁പൂർണ്ണമായ	-9.56417
യാക്കി	-9.56436
▁മാർപ്പാപ്പ	-9.56479
▁നോവൽ	-9.56497
▁തത്ത്വ	-9.56504
ഫാ	-9.56516
▁അമ്പ	-9.56538
മ്പാ	-9.56542
▁അദ്ദേഹ	-9.56607
നിലെ	-9.56614
▁സംഭാവന	-9.56634
▁ഉദാഹരണ	-9.56645
▁പരീക്ഷണ	-9.56678
ുവാനും	-9.56806
▁സൈന്യം	-9.56862
▁29	-9.56862
ചാര	-9.56946
േക്കാൾ	-9.5695
▁ലളിത	-9.5696
▁സ്ഥലം	-9.56961
▁ചെമ്പ	-9.57127
ാക്കിയ	-9.57145
േജ്	-9.57357
▁കമ്പ്യൂട്ടർ	-9.57419
▁തിരുവിതാംകൂർ	-9.57419
▁ഗ്രീക്ക്	-9.57419
▁വാർത്ത	-9.57522
▁ബ്രാഹ്മണ	-9.57548
വേദ	-9.57554
▁ഭാഗത്ത	-9.57572
▁ശങ്കര	-9.57582
▁മാർഗ്ഗ	-9.57584
എഫ്	-9.5763
രോഗ	-9.57646
യ്ക്കുള്ള	-9.57694
ോടെ	-9.57694
റ്റിക്	-9.57755
▁അവസാനം	-9.57792
▁സിംഗ്	-9.5781
▁പേർഷ്യൻ	-9.57815
▁അർത്ഥം	-9.5782
▁പ്രസിദ്ധീകരിക്ക	-9.5785
▁ആയുധ	-9.57893
▁സ്ക	-9.57976
ങ്കി	-9.58026
22	-9.58072
▁സ്വാമി	-9.58108
17	-9.5822
▁കാൽ	-9.58255
▁വേണ്ട	-9.58265
വിദ്യ	-9.58317
▁പ്രക്രിയ	-9.58342
▁പ്ല	-9.58606
മുതൽ	-9.58624
രുത്ത	-9.5863
റ്റെ	-9.58684
▁രാജ്യത്തെ	-9.58764
▁ഉദ്	-9.58859
ളു	-9.58923
ക്രി	-9.58932
▁തയ്യാറാക്ക	-9.58955
സ്ട്ര	-9.58972
വില	-9.59025
ങ	-9.59074
ല്	-9.59081
▁കർഷക	-9.59148
ഭ്യ	-9.59155
▁ഭാവ	-9.59159
ളവ	-9.59198
പ്പാട	-9.59257
▁നിലനിർത്ത	-9.59329
െടുക്കുന്ന	-9.59377
ter	-9.59388
▁വരുത്ത	-9.59507
▁താള	-9.59525
ീകരണം	-9.59586
േയും	-9.59635
റിയപ്പെടുന്നു	-9.59658
വശത്ത	-9.59671
▁പടിഞ്ഞാറ്	-9.59715
▁വിഷ	-9.59731
യാൻ	-9.59733
യാണ	-9.59819
ഭേദ	-9.59882
▁ഗോവ	-9.59932
▁പാർ	-9.59968
ാങ്ക	-9.59994
▁പൂർവ	-9.60045
▁മൗ	-9.60056
▁തലസ്ഥാന	-9.60072
ാണു്	-9.60101
▁76	-9.60108
▁വീട	-9.60142
▁കാണാൻ	-9.60163
▁തന്ത്ര	-9.60279
തന്ത്ര	-9.60299
സാഹിത്യ	-9.60302
യാത്ര	-9.60318
▁സംഘം	-9.60326
പ്ലാവ്	-9.60389
▁റഷ്യൻ	-9.60427
▁നിക്ഷേപ	-9.60446
കാരി	-9.60452
ീൻ	-9.60456
▁ശ്രമ	-9.60496
▁സോവിയറ്റ്	-9.60536
▁ഇപ്പോഴ	-9.60587
▁രവി	-9.60725
▁മന്ത്രിസഭ	-9.60797
▁പാട്ട	-9.60814
▁സിറ്റി	-9.60819
▁അവാർഡ	-9.60883
▁എയർ	-9.60913
ീർ	-9.60929
▁തായ്	-9.61019
▁പുഷ്പ	-9.61039
ോട	-9.61071
വർഗ്ഗ	-9.61081
▁മേയ്	-9.6113
പിള്ള	-9.61157
ബൈ	-9.6118
ഫ്ര	-9.61222
▁ലഭിച്ചത്	-9.61238
ക്കിൽ	-9.6125
▁ഓട	-9.61281
▁2016	-9.61291
ഹരി	-9.61299
▁കണ	-9.61345
▁കൊട്ടാര	-9.61358
രാഗ	-9.6138
▁O	-9.61402
▁യുവ	-9.61424
}.	-9.61483
നിന്നും	-9.61484
▁ഇൻസ്റ്റിറ്റ്യൂ	-9.61515
▁സാഹചര്യ	-9.61516
▁ദേശീയോദ്യാന	-9.61542
▁നിലനിൽക്കുന്ന	-9.61559
▁ഉപദേശ	-9.61596
കളുള്ള	-9.61611
▁ഭാഗമായ	-9.61755
▁ശുദ്ധ	-9.61758
▁വ്യാഖ്യാന	-9.61763
▁അധിക	-9.61773
ചരിത്ര	-9.6182
▁Ma	-9.61881
▁40	-9.61904
▁കോളനി	-9.61905
▁സഭയുടെ	-9.61956
▁റോമൻ	-9.61974
▁കിഴക്ക്	-9.61996
▁സാധ്യത	-9.6201
▁വളരെയധിക	-9.62015
▁ശബരിമല	-9.62055
▁അമ	-9.62061
വശ	-9.62063
▁ജനനം	-9.62135
▁പാലക്കാട്	-9.62176
▁കൊല്ലം	-9.62183
78	-9.62197
കൃതി	-9.62229
താര	-9.62247
▁കർണാടക	-9.62256
▁പൂർണ	-9.62268
▁തുട	-9.62304
▁വിദ്യ	-9.62358
പ്രതി	-9.6243
▁കഴിയും	-9.62451
▁ശില്പ	-9.62465
▁മനസ്സ	-9.62466
മാക്കിയ	-9.62564
▁സംരക്ഷണ	-9.62566
ിയാണ്	-9.62588
ഷ്ഠ	-9.626
09	-9.62621
ജു	-9.6264
▁അഞ്ച	-9.62712
▁ക്ലാസ്	-9.62766
▁കിടക്കുന്ന	-9.62788
▁ഗീത	-9.62801
▁ചെലവ	-9.62828
▁അറ	-9.62843
▁ഉൾപ്പെട്ട	-9.62895
കൈ	-9.62918
ാത്മക	-9.62928
രായി	-9.62931
40	-9.62934
▁അതായത്	-9.63004
48	-9.63005
വരുന്നു	-9.63008
▁2007	-9.63036
▁പതിപ്പും	-9.63052
▁പങ്കെടുത്ത	-9.63062
▁ബിരുദ	-9.63081
▁2005	-9.63125
റുടെ	-9.63143
ങ്ങളുള്ള	-9.63227
▁കയ്യ	-9.633
സ്സി	-9.63319
പ്ത	-9.63362
▁സ്റ്റാ	-9.63383
ൂൺ	-9.63401
▁നടപടി	-9.63416
▁മാസിക	-9.63435
▁മൃഗ	-9.63436
ന്റി	-9.63524
ig	-9.63543
ട്ടെ	-9.63552
നൽ	-9.63575
ോടുള്ള	-9.63659
80	-9.63673
തായ	-9.63698
▁കിലോമീറ്ററ	-9.63756
▁എന്നായിരുന്നു	-9.63803
▁വ്യ	-9.63843
ss	-9.63854
▁വരുമാന	-9.63868
തൃ	-9.6389
▁രേഖപ്പെടുത്ത	-9.63979
▁1980	-9.64038
ിനുള്ള	-9.64119
ികളും	-9.64206
തം	-9.64241
▁ഹിമാലയ	-9.64266
ീകൃത	-9.64329
▁തൈ	-9.64358
▁കുറച്ചു	-9.64364
▁നോക്കി	-9.64373
▁നാസ	-9.64388
▁രാജവംശ	-9.64388
ധര	-9.64488
▁അറ്റ	-9.64494
▁പ്രത്യേകം	-9.64557
▁Ch	-9.64565
▁ലിപി	-9.64578
▁പരാജയ	-9.64579
കുന്ന	-9.64637
08	-9.64655
▁അവസര	-9.64667
▁വിഗ്രഹ	-9.64711
▁ചരിത്രം	-9.64755
ളാ	-9.64789
▁നൽകുന്നു	-9.6481
ദീ	-9.64844
▁ജ്യോതിശാസ്ത്ര	-9.6485
▁പങ്കെടുക്ക	-9.64876
▁ഛ	-9.64882
ൊക്കെ	-9.64903
ഞ്ഞി	-9.64906
▁നഷ്ട	-9.64911
▁ശിലാ	-9.64912
രുവ	-9.64992
▁ചെയ്യപ്പെട്ട	-9.65008
▁അദ്ധ്യാപക	-9.6502
▁ആസ്ഥാന	-9.65033
▁പതിവ	-9.65056
പേര	-9.65071
ിനെതിരെ	-9.65074
ികളുടെ	-9.65096
സമയ	-9.65102
ീഷ്	-9.65143
▁കക്ഷി	-9.6522
▁കടൽ	-9.6523
ക്കൻ	-9.6525
▁ഗണപതി	-9.65292
▁പന	-9.65315
▁വലുത	-9.65352
റ്ററി	-9.65371
▁കുതിര	-9.65382
ഗതി	-9.65436
വ്യവസ്ഥ	-9.6546
▁പൈ	-9.65503
പുത്ര	-9.65552
സ്വാമി	-9.6556
▁മാസം	-9.65612
മിട	-9.65621
▁ഫ്ല	-9.65629
ത്തെക്കുറിച്ച്	-9.65654
55	-9.65666
▁ഉണ്ടാവ	-9.65706
പ്രാ	-9.65743
▁മാറ	-9.65928
ൊങ്ങ്	-9.65937
ion	-9.6595
ശേഷി	-9.65976
▁നര	-9.66037
▁നിർവഹിച്ച	-9.66045
ക്കളി	-9.66156
വാറ്റിൽ	-9.66198
▁ഉൽ	-9.66217
▁ആദ്യകാല	-9.66242
▁സങ്കല്പ	-9.66248
▁ആംഗ്ലോ	-9.66302
▁ഇലത്തവള	-9.6632
▁വർഗ	-9.66335
ോയി	-9.66368
▁നീക്ക	-9.66418
പിടി	-9.66479
ായാണ്	-9.66504
▁ബംഗാളി	-9.66595
▁കുഞ്ഞ	-9.66596
▁വള	-9.66684
77	-9.66719
ിന്റേയും	-9.66797
▁പരിധി	-9.6686
▁മുതലായ	-9.6691
ുവെങ്കിലും	-9.66956
എന്ന	-9.6698
▁സവിശേഷത	-9.66989
▁നേതാവ	-9.67011
െടുത്തു	-9.67098
▁ജീവിച്ചിരുന്ന	-9.67112
▁സംയുക്ത	-9.67116
▁ക്ഷേത്രത്തിൽ	-9.67128
റ്റിൽ	-9.67314
യായും	-9.67334
▁ഹൈന്ദവ	-9.67341
േക്ക്	-9.67343
ജീവിത	-9.67347
▁നദിയുടെ	-9.67358
▁കണ്ടെത്തി	-9.67399
▁കുഴ	-9.67417
▁പുതു	-9.67422
▁ശക്ത	-9.67462
▁റിപ്പബ്ലിക്ക	-9.67495
വാള	-9.67514
തയും	-9.67515
ഴ്സ	-9.67544
ുകാർ	-9.67546
▁ആദി	-9.67631
കൂട്ട	-9.67637
▁ജൂ	-9.67649
മുരിക്ക്	-9.67678
▁വിമാനത്താവളം	-9.67714
▁പ്രഖ്യാപിച്ചു	-9.67719
ബേ	-9.6783
▁കമ്മിറ്റി	-9.67863
▁ജനാധിപത്യ	-9.67876
ക്കൂട്ട	-9.67899
യുദ്ധ	-9.67904
▁കുടുംബത്തിൽ	-9.6792
ശാഖ	-9.67921
▁പിടി	-9.6793
▁തൃ	-9.67958
▁അയ്യപ്പ	-9.68066
▁ഉടമ	-9.68178
▁ലാമിക	-9.68186
▁ജീവിതം	-9.68248
▁അയാൾ	-9.68278
▁പൂർ	-9.68299
ിപ്പിക്കുന്ന	-9.68381
മന്ദാര	-9.68395
▁കൊടുക്ക	-9.68407
▁നിർമ്മാണം	-9.68447
സ്ഥാപന	-9.6845
▁പാഠ	-9.68498
ചാ	-9.68556
▁പുനർ	-9.68607
▁ചെങ്ക	-9.68617
▁ആഥൻസ	-9.6866
▁ചെന്നൈ	-9.68704
റൈ	-9.68706
▁വ്യാസ	-9.68855
മാണ	-9.68868
▁മലയാളം	-9.68882
▁തുടക്കത്തിൽ	-9.68888
▁പ്രദേശങ്ങൾ	-9.68951
ധാന	-9.68974
▁ഉൾക്കൊള്ളുന്ന	-9.69021
▁നന്ദ	-9.69022
▁ഓർമ്മ	-9.69029
കളുടേയും	-9.6904
ായും	-9.6904
വിൻ	-9.69051
▁മാധ്യമ	-9.69082
▁നായക	-9.69103
▁വളരുന്ന	-9.69228
▁ആൺ	-9.69269
വെച്ച	-9.69303
▁സെന്റ്	-9.69355
▁ആരംഭിച്ചത്	-9.69407
▁സാമൂഹ്യ	-9.69423
▁പ്രക്ഷോഭ	-9.69461
േൽസ്	-9.69473
▁മദീന	-9.6949
▁എഫ്	-9.69535
▁ത്ര	-9.69567
മൂലം	-9.69598
▁എഴുത്ത	-9.69611
▁രേഖപ്പെടുത്തിയ	-9.69663
ങ്ങളിലായി	-9.6971
▁ഓസ്ട്രേലിയ	-9.69715
37	-9.69762
മേറിയ	-9.69766
▁ഭരത	-9.69783
▁ഒഴുകുന്ന	-9.69825
▁മൂല്യ	-9.69868
കുമ്പിൾ	-9.69884
ിലേക്ക	-9.69906
ക്കൊണ്ട്	-9.69957
58	-9.69959
▁യേശു	-9.69975
▁സഖ്യ	-9.70028
▁അംഗീകരിച്ച	-9.70036
▁അണു	-9.70047
▁ടൈ	-9.70119
▁ബഹു	-9.70172
▁ഗലീലിയോ	-9.7025
▁സാമാന്യ	-9.70251
▁ഉണ്ണി	-9.7026
▁നിലനിന്നിരുന്ന	-9.7028
▁വശ	-9.70304
▁വിജയം	-9.7034
▁ഭാഗത്ത്	-9.70342
ിയായി	-9.70437
തെന്നും	-9.70474
▁വലിപ്പ	-9.70578
െത്തിയ	-9.70578
▁സർവ്വകലാശാല	-9.70611
▁തൊ	-9.70662
േശ	-9.70738
ചന്ദ്ര	-9.70754
▁ഇതിലെ	-9.7076
▁ആക	-9.70766
▁ആഭ്യന്തര	-9.70789
▁ഡെൽഹി	-9.70789
▁സോഫ്റ്റ്	-9.70801
ാനോ	-9.70819
▁60	-9.70831
▁ഉദാ	-9.70844
തീര	-9.70913
▁വേർ	-9.70936
▁ആത്മ	-9.71007
▁പ്രസംഗ	-9.7106
▁പെൺകുട്ടി	-9.71062
▁വ്യാപകമായി	-9.71095
▁കന	-9.71096
▁തുല്യ	-9.71105
രപ്പൻ	-9.71107
▁കാനഡ	-9.71126
▁ബൈ	-9.7113
▁2004	-9.7114
▁പോളി	-9.7121
▁അമേരിക്കയിലെ	-9.71224
ച്ചെ	-9.71341
തെങ്കിലും	-9.71354
മൂർത്തി	-9.71441
ുവരുന്നു	-9.71449
▁അധികാരം	-9.71468
▁പാരി	-9.71474
56	-9.71493
പ്ല	-9.71514
▁നടപ്പാക്ക	-9.71528
▁കീഴില	-9.71588
▁ബുദ്ധമത	-9.71622
▁ലോകകപ്പ	-9.71644
▁വരയൻ	-9.71725
39	-9.71776
▁പ്രസിദ്ധമായ	-9.71898
ചേര	-9.71918
▁സംഭവിച്ച	-9.71937
▁പ്രദേശത്ത്	-9.71962
▁പ്രവേശിക്ക	-9.71969
▁ചിലപ്പോൾ	-9.71991
▁ദീർഘ	-9.72006
▁കുരു	-9.72049
ാകുന്നു	-9.72074
ജൻ	-9.721
▁തേടി	-9.72156
▁പരമ	-9.72174
ിത്തീർന്ന	-9.72174
▁സിംഗ	-9.72175
▁രാജാവ	-9.72184
ക്കാരെ	-9.72211
▁ആൾ	-9.72264
▁മുറി	-9.72323
കളേയും	-9.72363
▁സൃഷ്ടിച്ച	-9.72388
ലിംഗ	-9.72474
ുമായ	-9.72507
ങ്ങളേയും	-9.7255
▁എട്ടു	-9.72553
06	-9.72559
▁ഗ്രാമപഞ്ചായത്ത	-9.72572
ണോ	-9.72577
▁വർ	-9.72581
ly	-9.72605
88	-9.72613
▁ബിരുദം	-9.72618
രുത	-9.72624
വാദം	-9.72658
ിലേക്കു	-9.72674
▁ഹൃദയ	-9.72704
▁1990	-9.72723
▁കർമ്മ	-9.72796
26	-9.728
▁ശ്രദ്ധിക്ക	-9.72911
ഷീ	-9.72916
▁പ്രശസ്തമായ	-9.72959
▁ടെലിവിഷൻ	-9.72971
▁രഹസ്യ	-9.72971
▁മുഖ്യമന്ത്രി	-9.72983
രേ	-9.73093
▁രാജ്യം	-9.73242
▁നാടോടി	-9.73248
▁പാർലമെന്റ	-9.73248
▁പരിഗണിക്ക	-9.7325
▁എത്തി	-9.73262
േഷന	-9.73359
13	-9.7342
▁സമ്പ്രദായ	-9.73494
▁തെരഞ്ഞെടുക്ക	-9.73499
ക്ഷേത്രം	-9.73508
▁തിരഞ്ഞെടുപ്പ	-9.73545
പുറ	-9.73565
▁മധുര	-9.73575
പ്രവർത്തക	-9.73596
▁ഭീമ	-9.736
▁പാർട്ടിയുടെ	-9.73621
▁ബാബ	-9.73627
ിയിരുന്നു	-9.7364
.1	-9.73707
▁നയിച്ച	-9.73774
ഡീ	-9.73792
ാംശ	-9.73852
▁സേവനം	-9.73882
▁അടിമ	-9.73893
▁ഇരട്ട	-9.73895
▁കരുത	-9.73926
ാചാര്യ	-9.73932
▁നീളം	-9.73996
L	-9.74009
▁രാജ്യത്തിന്റെ	-9.74057
ഭീ	-9.74108
▁1996	-9.74109
▁പിൽക്കാലത്ത്	-9.74126
വിയ	-9.7417
ഘട്ട	-9.74205
▁കത്ത	-9.74205
▁നാമം	-9.74251
▁പെൺ	-9.74293
▁എക്സ്	-9.74321
▁കാര്യങ്ങൾ	-9.74337
▁പട്ടാള	-9.74387
▁ലോകത്തെ	-9.74416
▁നാള	-9.7457
മനുസരിച്ച്	-9.74592
▁പതാക	-9.74643
▁2015	-9.74665
▁നിയമസഭ	-9.74668
ട്ര	-9.74669
ടുപ്പ	-9.74734
▁നദീ	-9.74771
51	-9.74791
▁ചെന്ന	-9.74827
▁പിന്നീട	-9.74833
27	-9.74836
ുമെന്ന്	-9.74878
▁ഗ്രൂപ്പ	-9.74919
64	-9.74928
ാവകാശ	-9.74933
▁പ്രഭു	-9.74975
ിതമായ	-9.74995
▁സന്ദേശ	-9.75001
ിരിക്കും	-9.75031
സമൂഹ	-9.75087
മാരും	-9.75089
▁നൽകിയത്	-9.75125
നിർമ്മാണ	-9.75145
▁അവയിൽ	-9.75151
▁രാജ്യങ്ങൾ	-9.75156
ണർ	-9.75221
▁സ്ഥാപിതമായ	-9.75267
▁പത്തു	-9.75284
മീറ്റർ	-9.75297
ദാന	-9.75343
▁ഉണ്ടാക്കുന്ന	-9.75354
നീയ	-9.75364
സ്ഥാൻ	-9.75455
▁ഖുർആൻ	-9.75486
ാണുള്ളത്	-9.75488
ാനാണ്	-9.75493
▁മൂന്നാമത്തെ	-9.75498
▁കുമാർ	-9.75507
കുല	-9.75535
▁മാറിയ	-9.75545
ുതന്നെ	-9.75615
പ്പുറത്ത	-9.75695
▁അതുപോലെ	-9.75705
▁പഞ്ചായത്ത്	-9.75717
ti	-9.75739
▁മണ്ഡല	-9.75842
▁എല്ലാം	-9.75872
im	-9.75877
▁വേര	-9.75877
റ്റ്സ്	-9.759
മ്യ	-9.75907
പ്പൂ	-9.75933
ഘടന	-9.75939
ച്	-9.75945
▁ഡിസ്	-9.75953
▁ടാങ്ക	-9.75969
▁വായു	-9.7599
ക്കളുടെ	-9.75993
ut	-9.76015
▁ഫുട്ബോൾ	-9.76053
▁സോഷ്യലിസ്റ്റ്	-9.76053
▁യൂണിവേഴ്സിറ്റി	-9.76054
▁സഹോദരി	-9.76064
വേലി	-9.76093
ഡർ	-9.76213
▁കൊള്ള	-9.76233
ബിൾ	-9.76264
▁നാലാം	-9.76393
മയ	-9.76416
▁നേരിട്ട്	-9.76451
കലാ	-9.76465
▁മകൻ	-9.76506
പൂ	-9.76513
▁എന്നിവരുടെ	-9.76529
െയിൻ	-9.7653
▁ചെയ്യുകയും	-9.7654
ക്കല്ല	-9.76554
▁വോട്ട	-9.76561
റ്റുകൾ	-9.76567
ീസ	-9.76601
ക്കിന്റെ	-9.76602
▁മെക്സിക്കോ	-9.76624
▁ഖലീഫ	-9.76624
ation	-9.76646
▁എങ്ങനെ	-9.7669
മാണു	-9.76717
▁സർക്കാരിന്റെ	-9.76766
ബറ	-9.76814
ടുക്ക	-9.76839
ൂണ	-9.76898
ന്മാരും	-9.76899
▁കർ	-9.76908
▁വൈദിക	-9.76911
▁അയ	-9.76924
▁മലപ്പുറം	-9.7693
▁എതിർ	-9.76942
▁അബ്ദുൽ	-9.7695
▁1999	-9.76955
ent	-9.76958
▁ഇപ്പോഴും	-9.76999
ജീവി	-9.77019
▁സമാന	-9.77049
തയുടെ	-9.77124
▁സുഖ	-9.77125
▁വയസ്സ	-9.77147
▁സൗ	-9.77171
ുന്നതിന	-9.77186
നാൾ	-9.77187
▁പന്ത്രണ്ട	-9.77197
▁വിമർശന	-9.77197
▁മകന	-9.77204
▁അംബ	-9.77216
34	-9.77219
ജാത	-9.77361
▁പാസ്	-9.77394
▁സഹായത്തോടെ	-9.77396
▁പ്രസ്ഥാനം	-9.7742
▁പ്രഥമ	-9.7749
ത്തുന്ന	-9.77497
ക്കുന്നത്	-9.77515
▁തർക്ക	-9.77523
ടേ	-9.77524
കെട്ട	-9.77552
▁കൗ	-9.77572
ധാ	-9.7759
വരു	-9.77598
▁തണ്ട	-9.77607
▁തിരുവ	-9.77626
est	-9.77663
രൂപം	-9.7767
▁കണക്കാക്കുന്നു	-9.77729
▁ഫ്രാൻസ	-9.77731
ക്കാരനായ	-9.77762
do	-9.77841
രോധ	-9.77845
▁ആര്യ	-9.7797
ടോ	-9.78025
വുമ	-9.78111
▁ഗി	-9.78114
ലക്ഷ	-9.78137
▁ഇംഗ്ലണ്ട	-9.78176
▁അമേരിക്കയിൽ	-9.78177
റസ്	-9.78183
▁കാരണമായി	-9.78225
റിലെ	-9.78254
▁സ്ത്രീകളും	-9.78288
▁ധാതു	-9.78301
നദി	-9.78355
display	-9.78355
▁ആട	-9.78413
▁അനുകൂല	-9.78428
ികളായ	-9.78476
▁നടത്തുന്നത്	-9.78509
▁ദശ	-9.78527
ുമായിരുന്ന	-9.7853
▁നോക്ക	-9.78564
രാഷ്ട്ര	-9.78566
▁കാനേഷുമാരി	-9.78647
▁80	-9.78683
▁പൊട്ട	-9.78746
ea	-9.78823
▁v	-9.78831
▁നിത്യ	-9.78854
▁മദ്രാസ്	-9.78898
▁വില്ലേജ	-9.78932
▁എളുപ്പ	-9.78939
▁കലണ്ടർ	-9.7894
ുണ്ടെന്ന	-9.78943
▁ഐക്യരാഷ്ട്രസഭ	-9.78945
▁ചുരുക്ക	-9.78952
▁തദ്ദേശീയ	-9.78953
▁ലീഗ്	-9.7896
ത്താൻ	-9.78971
▁എടുത്ത	-9.78994
▁ഭൂമിയിൽ	-9.7901
ാനന്ദ	-9.79019
▁ആഗോള	-9.79094
▁പുറം	-9.79119
സേ	-9.79182
▁=	-9.79186
ർട്ട	-9.79201
സ്ക	-9.7922
ശൈലി	-9.79221
തുകൊണ്ട്	-9.79225
▁പ്രതിഷേധ	-9.79232
▁ആലപ്പുഴ	-9.79234
42	-9.79279
▁പണ	-9.79296
▁നെയ്	-9.79355
▁മുന്നിൽ	-9.79367
▁മരം	-9.79371
ഗാന	-9.79387
▁ദേശീയോദ്യാനം	-9.79494
▁ഭക്ഷണം	-9.79514
▁പാകിസ്താൻ	-9.79526
ുപോയ	-9.79528
▁അപകട	-9.79542
▁1992	-9.79546
▁രസ	-9.79549
▁നേട	-9.79556
▁ഇബ്	-9.79646
▁ചാര	-9.79662
ട്ടർ	-9.79711
▁സ്ഥാപിച്ചു	-9.79722
▁ഇന്ന	-9.79735
▁വിസ്തൃതി	-9.79736
ഭദ്ര	-9.79794
▁കടുത്ത	-9.7981
▁യൂണിയൻ	-9.79822
▁നൈ	-9.79827
▁ഗംഗാ	-9.79883
രംഗ	-9.79895
▁ദൗത്യ	-9.79899
യുക്ത	-9.79915
▁സർവ	-9.79954
ലേഖ	-9.80046
▁ഹീ	-9.80052
ka	-9.80112
-1	-9.80132
▁ഒരാള	-9.80142
▁തുടർച്ചയായി	-9.80293
ളുടെ	-9.80343
▁കിട്ട	-9.8038
style	-9.80415
▁സംരക്ഷിക്ക	-9.80422
85	-9.80425
നാട	-9.80432
സ്യ	-9.80449
പരമായി	-9.80461
▁മനോ	-9.80472
▁ആന്റ്	-9.80499
▁വെബ്	-9.80597
േറിയ	-9.80614
na	-9.80639
▁ആകൃതി	-9.80665
കളുണ്ട്	-9.80688
ട്ടൻ	-9.80695
▁തീരുമാനിച്ചു	-9.80708
▁കൈകാര്യം	-9.80712
▁കോള	-9.80715
▁സൂക്ഷിക്ക	-9.80718
ങ്ങളായിരുന്നു	-9.80752
▁സ്ഥലത്ത്	-9.80757
59	-9.80764
▁രൂപീകരിച്ച	-9.80773
ോളി	-9.80783
ഭൂമി	-9.80816
▁മുദ്ര	-9.80845
▁സൃഷ്ടി	-9.80929
ne	-9.80941
ോളജി	-9.80958
െന്നാണ്	-9.80958
▁സര	-9.80962
േൽ	-9.80988
ുവിന്റെ	-9.81048
▁ഉയരത്തിൽ	-9.81075
ളിൽ	-9.81096
രാജ്	-9.81106
തായും	-9.81107
sh	-9.81166
േണ്ടത	-9.81264
▁തമിഴ	-9.8129
▁അധി	-9.81292
▁ഇവിടുത്തെ	-9.8131
▁മരണം	-9.81311
▁കേന്ദ്രീകരിച്ച	-9.81365
▁തലസ്ഥാനമായ	-9.81371
95	-9.81427
▁കൂട്ടി	-9.81431
▁പാക	-9.81452
67	-9.81453
ിയിട്ടുണ്ട്	-9.81476
ബ്ലി	-9.81483
ാണെന്നു	-9.81486
▁ലക്ഷ്മി	-9.81486
▁ബ്ല	-9.8151
▁ക്രോ	-9.81512
▁ഭക്ഷ്യ	-9.81546
▁കുറിച്ച്	-9.81555
▁തെളി	-9.81575
ശീ	-9.81583
▁വിശ്വസിക്കുന്നു	-9.816
മംഗലം	-9.81612
നിക	-9.81628
മൈ	-9.8164
ുവാനുള്ള	-9.81681
▁കുട്ടികളുടെ	-9.81681
▁വലിപ്പം	-9.81701
▁31	-9.81735
ങ്കു	-9.8177
ശ്യ	-9.81783
▁പുസ്തകം	-9.81856
ിച്ചിട്ടുണ്ട്	-9.81918
ക്കാനുള്ള	-9.81973
▁നീള	-9.81974
▁വീര	-9.81994
▁ചെയ്യുക	-9.82025
ാന്തര	-9.82025
98	-9.82084
▁കുത്ത	-9.82117
ിച്ചിരുന്ന	-9.82126
ലാന്റ	-9.82132
▁മലയാളത്തിൽ	-9.82166
▁ശര	-9.82175
▁ഇടയിൽ	-9.82191
▁യോ	-9.82198
▁കച്ചവട	-9.82213
നയ	-9.82233
60	-9.8228
ശ്രീ	-9.82348
▁പഠിക്ക	-9.82356
▁സ്വര	-9.82425
▁ശേഷി	-9.82494
തു്	-9.82581
47	-9.82634
െക്കുറിച്ചുള്ള	-9.82699
▁ആൽ	-9.82749
14	-9.82749
▁മുതലായവ	-9.82759
മതി	-9.82779
▁സമതല	-9.82792
വാല	-9.82817
▁അശോക	-9.8282
പന	-9.82824
▁ബോർഡ	-9.82844
▁ഏതെങ്കിലും	-9.8286
▁സിങ്	-9.82878
▁1,	-9.82887
പ്പിൽ	-9.83004
ക്ഷൻ	-9.83016
▁മറ്റ	-9.83023
ുണ്ടെങ്കിലും	-9.83055
▁ആദര	-9.83112
▁മിക്കവാറും	-9.83125
▁സന്ദർശിച്ച	-9.83125
▁ഉടമ്പടി	-9.83125
▁ഗർഭ	-9.83134
ക്കാന	-9.8317
▁പുരുഷന്മാരും	-9.83204
▁വനിതാ	-9.83209
▁വെച്ച	-9.83423
▁മോഡ	-9.83438
▁ജൈവ	-9.83439
ാതിരുന്ന	-9.83469
ാണെന്നും	-9.83471
രാജൻ	-9.83472
ിസ്	-9.83477
ാതിരിക്ക	-9.83479
▁n	-9.83502
▁ആഗ്രഹ	-9.8353
മെങ്കിലും	-9.83658
ക്കുവേണ്ടി	-9.83665
▁നടത്താൻ	-9.83693
▁വിലയിരുത്ത	-9.83738
വർണ്ണ	-9.83743
▁കൂടുതല	-9.83793
▁ശ്രമിച്ച	-9.83805
േഷ്	-9.83836
ac	-9.83875
ക്കൊട്ട	-9.83905
യെല്ലാം	-9.83919
▁വിഭജന	-9.83942
രാണ്	-9.83958
▁അല്ല	-9.83987
ിണി	-9.8399
▁എതിർപ്പ	-9.83998
▁ചിറക	-9.84008
▁പ്രതീക	-9.84042
ചക്ര	-9.84106
▁g	-9.84141
യില്ല	-9.8418
▁അക്	-9.84181
▁നൂറ	-9.84223
▁ലൂ	-9.84224
ഴുക	-9.84237
വാത	-9.84265
▁ബാക്കി	-9.84286
ുവെന്ന	-9.84301
െയും	-9.84316
▁വരും	-9.84327
▁കൂടിയാണ്	-9.84385
▁നടന്നത്	-9.84515
ൈൻ	-9.8456
▁അംഗങ്ങൾ	-9.84664
ാമത്തെ	-9.84676
▁വൈദ്യുത	-9.84682
▁നൂ	-9.84729
ah	-9.8474
ഡു	-9.84764
▁ലീഗ	-9.84771
ന്റെയും	-9.84784
▁കാമ	-9.84827
▁പ്രായ	-9.84838
68	-9.84847
▁പണം	-9.84864
▁നടപ്പിലാക്ക	-9.84922
▁സ്വാ	-9.84938
43	-9.84938
▁പങ്ക	-9.84946
മിന്റെ	-9.84977
▁മഹാഭാരത	-9.85009
ാബാദ്	-9.85014
ർദ്ദ	-9.85017
ന്ത്	-9.85026
ിക്കപ്പെടുന്ന	-9.85033
os	-9.85135
▁സ്വാധീനം	-9.85172
▁നീക്കം	-9.85174
▁കാവ	-9.85178
ല്ലോ	-9.85216
വാൻ	-9.85228
▁സൂപ്പർ	-9.85293
▁നടത്തിയത്	-9.85302
▁2017	-9.85306
യറ്റ	-9.85315
ുകളിലെ	-9.85316
നാഥ്	-9.85319
നുമായ	-9.85362
ുന്നതാണ്	-9.85458
▁പതിപ്പ്	-9.85461
▁പ്രവേശന	-9.85467
വൃത്തി	-9.85486
▁ആഹാര	-9.85496
66	-9.85502
▁എച്ച്	-9.85564
▁1970	-9.85628
കൂടിയ	-9.85629
ല്ലൂർ	-9.85645
▁പ്രദേശത്തെ	-9.85712
▁രണ്ടായി	-9.85716
▁ഇലകൾ	-9.8572
ഉം	-9.85725
ഴിച്ച	-9.85729
▁കോൺഗ്രസ്സ്	-9.85751
▁കുഞ്ഞി	-9.8578
▁ഭൂമിയുടെ	-9.85793
▁ഭൗതിക	-9.858
ർവ്വ	-9.85806
▁റോഡ്	-9.85817
മായിരിക്കും	-9.85831
▁ഒട്ട	-9.85862
▁ലൈംഗിക	-9.85912
▁മെഡിക്കൽ	-9.85912
▁വാർഷിക	-9.85915
പ്പാല	-9.85943
▁ഉള്ളത്	-9.85952
▁റെഡ്	-9.8596
ത്തിലേക്കു	-9.85986
▁നടത്തുന്നു	-9.85992
▁കിഴക്കു	-9.86027
കൂ	-9.86058
ച്ചെടി	-9.86078
കൊടുക്ക	-9.86086
▁ഭാഗങ്ങളിൽ	-9.86145
▁യൂണിറ്റ	-9.86233
▁പലപ്പോഴും	-9.86264
▁ഹാർ	-9.86288
▁ഡ്ര	-9.86302
ഞ്ഞ്	-9.86368
▁ഗുഹ	-9.86373
ശ്ശ	-9.86396
യെങ്കിലും	-9.86459
▁നിർവ്വഹിച്ച	-9.86464
▁തുടങ്ങിയത്	-9.86491
▁ആസ്	-9.86533
▁ഒട്ടേറെ	-9.86542
▁ശാന്തി	-9.86593
▁അന്ന	-9.86594
96	-9.86612
തുപോലെ	-9.86618
▁കോട്ടയം	-9.86656
സംഘടന	-9.86658
46	-9.86662
▁സ്ത്രീകൾ	-9.86702
▁പറയാം	-9.86738
▁ജൈന	-9.86821
രക്ഷ	-9.86844
▁തത്ത്വചിന്ത	-9.86864
▁ഒരിക്കൽ	-9.86873
▁യമുന	-9.86882
▁കൊല	-9.86898
▁ഇരുപതാം	-9.86915
രശലഭം	-9.8692
▁കൃതികൾ	-9.86943
യുടേ	-9.86968
▁സാധിക്ക	-9.86995
▁കോർ	-9.87013
▁സ്വദേശി	-9.87027
▁പണിത	-9.87043
▁വധിക്ക	-9.87104
▁സൂക്ഷ്മ	-9.87175
▁ജർമ്മനി	-9.87176
▁സംശയ	-9.87182
▁1971	-9.87201
▁1998	-9.87208
വച്ച	-9.87221
െടുത്ത്	-9.87222
ak	-9.87228
▁{\	-9.87243
▁എടുക്ക	-9.8725
വറ	-9.87265
ിട്ട്	-9.873
▁നേട്ട	-9.87315
▁2003	-9.87366
90	-9.87383
▁ഉൾപ്പെടുത്തിയ	-9.87394
▁തള	-9.87477
▁ചിത്രത്തിലെ	-9.8751
▁ഇന്ദ്ര	-9.87554
▁കമ്പ	-9.87569
▁ഉയർത്ത	-9.8762
െണ്ണ	-9.87666
▁മക്കള	-9.87732
ാറില്ല	-9.8774
യാമ	-9.87787
▁ഭഗവതി	-9.87814
▁ചോല	-9.87867
▁അകലെ	-9.87877
▁1950	-9.87879
ലുള്ള	-9.87921
ത്തോടു	-9.87944
▁ആരാധന	-9.87984
▁മൂലക	-9.8802
▁നഗരത്തിൽ	-9.88045
ിൽനിന്ന്	-9.88047
ങ്ങളിലേക്ക്	-9.88076
▁കണക്കാക്കപ്പെട	-9.88103
▁റിസ	-9.88112
▁അഫ്ഗാനി	-9.88131
▁തിരുവിതാംകൂറ	-9.88134
▁സൊസൈറ്റി	-9.88134
▁പതിനഞ്ച	-9.88136
▁ഇറ്റലി	-9.88138
ർക്കും	-9.88171
▁പ്രചാര	-9.88193
▁ചലന	-9.88211
തുമാണ്	-9.88225
▁എന്നൊരു	-9.88252
▁തൊഴിൽ	-9.88257
ിരി	-9.88285
▁ഗോൾ	-9.88363
▁ഉൾപ്പെടെ	-9.88383
▁ഹിമ	-9.88383
ug	-9.88388
▁ശത്രു	-9.88412
▁ചിത്രങ്ങളിൽ	-9.88449
▁നിരീക്ഷിക്ക	-9.88455
▁സംഭാഷണ	-9.88457
▁ക്ലബ്ബ	-9.88479
▁തൂക്ക	-9.885
▁ചാല	-9.88524
നിർ	-9.88543
79	-9.88577
ാധിപ	-9.88588
ഷ്ണ	-9.88591
ിങ്ങ	-9.88615
േണ	-9.88639
▁പാദ	-9.88717
▁നഗരത്തിന്റെ	-9.88738
▁പക്ഷ	-9.88746
▁പ്രഖ്യാപിക്ക	-9.88778
ുദ്ദീൻ	-9.88808
▁ഉച്ച	-9.88817
▁ലാം	-9.88887
ാണെന്ന	-9.889
▁ഓട്ട	-9.89012
▁ആഫ്രിക്കൻ	-9.89074
▁കഥാ	-9.89097
man	-9.89097
▁പിടിക്ക	-9.89106
▁ഫാത്തിമ	-9.89114
▁ഭാഗമാണ്	-9.89131
▁റാവു	-9.89138
▁ചുമ	-9.89156
▁അതിന്	-9.89158
▁ഏർപ്പെട്ട	-9.89176
▁ഒന്നു	-9.89225
▁പുളി	-9.89285
▁കവാട	-9.89291
▁ഞാ	-9.8935
▁കാര്യത്തിൽ	-9.89394
▁ആശ്രയിച്ച	-9.89426
▁രേഖകൾ	-9.89437
▁കൈവശ	-9.89468
▁കണക്ക	-9.89469
▁സാര	-9.89498
ന്ദ്	-9.89517
ത്തിലായിരുന്നു	-9.8955
97	-9.89561
പ്പോഴ	-9.89563
▁പേരിലാണ്	-9.89582
കാരൻ	-9.89643
▁അടിസ്ഥാനത്തിൽ	-9.89654
▁ആള	-9.89654
ുണ്ടാ	-9.89659
മുണ്ടായിരുന്നു	-9.89704
വച്ച്	-9.89712
വം	-9.89732
▁വേഗത	-9.89749
▁ലോകമഹായുദ്ധ	-9.89752
▁ശ്രീകോവില	-9.89752
▁ഗ്രിഗോറിയ	-9.89752
ത്തിൻ	-9.89815
▁മോഹ	-9.89822
▁ചെയ്യും	-9.8983
▁ഒഫ്	-9.8984
നാട്ട	-9.8987
▁കല്ലാ	-9.89879
ലിപ്പ	-9.89883
യിരുന്നു	-9.89903
ക്കാനും	-9.89924
▁ഗോള	-9.89975
മുണ്ടായിരുന്ന	-9.90017
▁കാണിച്ച	-9.90032
background	-9.90079
▁മുസ്ലീം	-9.9008
▁ബസ്	-9.90166
▁സർവ്വ	-9.90192
▁രാഗ	-9.90193
▁ലഭിച്ചിട്ടുണ്ട്	-9.90327
▁പ്രസിഡന്റ	-9.90331
▁കായിക	-9.90333
▁U	-9.9034
▁പിടിച്ചു	-9.90398
▁അധ്യാപക	-9.90407
▁ഭർത്താവ	-9.90407
▁വേല	-9.90408
പോക	-9.90447
▁ബഹ	-9.90459
ഞ്ചേരി	-9.90472
▁വടക്ക	-9.90474
ങ്ങളോ	-9.90475
▁രാജാവിന്റെ	-9.90508
▁തുക	-9.90553
▁t	-9.9059
▁കരിമ്പ	-9.90592
▁വരെയും	-9.90619
വിന്	-9.90631
മേള	-9.90647
കാലത്തെ	-9.90662
03	-9.90672
തിനുശേഷം	-9.90715
▁സ്പാനിഷ്	-9.90736
▁ബഹുമതി	-9.90744
ിനേയും	-9.90795
ഭാരത	-9.90855
▁മകനായി	-9.90863
▁തെങ്ങ	-9.90907
ുന്നതു	-9.90912
▁ചിലർ	-9.90933
▁വിനോദ	-9.90991
▁സിനിമാ	-9.91002
▁കൺ	-9.91021
ഖനന	-9.91062
▁കൊൽക്കത്ത	-9.91066
ത്രേ	-9.91105
മാരെ	-9.91165
49	-9.91168
ജിയ	-9.91197
▁കോശ	-9.91249
ഷ്യൽ	-9.91279
▁എന്നിവിടങ്ങളില	-9.91309
▁മതി	-9.91333
വെള്ള	-9.91357
▁കഴിക്ക	-9.9139
▁ശിഷ്യ	-9.9139
▁ഉദ്ഭവ	-9.91415
▁പ്രവേശിച്ച	-9.91443
▁പ്രത്യ	-9.9151
▁ദിശ	-9.91521
സമിതി	-9.91542
▁75	-9.91553
കാണ	-9.916
▁വക്ക	-9.9162
07	-9.91633
44	-9.9167
tr	-9.91683
▁1991	-9.91759
▁1997	-9.91761
▁നായ	-9.91789
▁പ്രത്യക്ഷ	-9.91826
ud	-9.91861
▁വാതക	-9.91883
70	-9.91892
▁നിർബന്ധ	-9.91898
ഗിരി	-9.91958
▁ബുദ്ധി	-9.92012
ാകുന്ന	-9.92056
▁കാലയളവിൽ	-9.92062
▁തന്മാത്ര	-9.92063
▁തിരഞ്ഞെടുത്ത	-9.92063
▁ഇസ്ലാം	-9.92068
വൃത്ത	-9.92074
▁കുടിയേറ്റ	-9.92094
ഹര	-9.92095
▁ഉര	-9.92124
▁ശ്രദ്ധേയമായ	-9.92197
▁പേരും	-9.922
ുവെന്നും	-9.9224
▁തുടർന്ന	-9.9233
ങ്ങളാൽ	-9.92337
▁വട	-9.92342
▁പൊടി	-9.92377
▁പുരുഷ	-9.9239
▁ഉത്പാദന	-9.92397
▁പ്രസ്താവ	-9.92397
▁തിരികെ	-9.92398
▁1957	-9.92428
▁പ്രദർശന	-9.92443
he	-9.92508
യാണെന്ന്	-9.92515
▁ഇക്കാലത്ത്	-9.92547
മൊ	-9.92579
കാരണ	-9.92608
▁ഷെ	-9.92647
റൂ	-9.92693
24	-9.92702
ാധികാര	-9.92725
ിലെത്തി	-9.92727
oordinates	-9.92732
തിനെത്തുടർന്ന്	-9.92791
ിലേക്കും	-9.92805
▁കുല	-9.9284
28	-9.92859
ബാധ	-9.92941
▁സ്ട്ര	-9.92951
▁ഗണിതശാസ്ത്ര	-9.92969
ാൻസി	-9.93009
▁നികുതി	-9.93069
▁ഫെഡറ	-9.9307
▁കാണപ്പെടുന്നത്	-9.93076
▁പാലി	-9.93109
▁പുരസ്കാര	-9.93143
പോർട്ട	-9.93159
ക്കൊപ്പം	-9.93178
ൂരിൽ	-9.9322
▁ബ്രാ	-9.93221
മാകുന്ന	-9.9324
▁വസ്തുവ	-9.93248
ഹം	-9.93267
▁വീണ	-9.93296
പ്പാട്ട	-9.93311
▁വളർന്ന	-9.93324
റിയപ്പെടുന്നത്	-9.93344
▁തീവണ്ടി	-9.93407
▁ഉദ്യാന	-9.93425
▁അനുമതി	-9.93439
▁പ്രപഞ്ച	-9.93445
▁ദുർ	-9.93542
വാസി	-9.93549
വാക്യ	-9.93554
പ്പിച്ചു	-9.93576
▁ദൂരം	-9.9361
യ്ക്കുന്ന	-9.93616
▁ജില്ലാ	-9.93627
▁ഉയർത്തി	-9.93629
▁എടുത്തു	-9.93639
▁വാങ്ങ	-9.93642
▁എന്നിവയിൽ	-9.93671
▁നേർ	-9.93694
കവി	-9.93732
കുമാർ	-9.93763
▁മീറ്ററ	-9.93774
▁ചിഹ്ന	-9.93816
ദോ	-9.93834
▁മീന	-9.93834
മില്ലാതെ	-9.93872
യിലായിരുന്നു	-9.93882
പ്പൂർ	-9.93887
യിനം	-9.93895
▁ജനങ്ങളുടെ	-9.93972
ച്ചേരി	-9.94003
73	-9.94052
54	-9.94078
▁കമ്മീഷൻ	-9.94086
▁താരതമ്യേന	-9.94087
▁വിക്ഷേപണ	-9.94087
ഡേ	-9.94195
ിരിക്കാം	-9.94197
▁അംഗീകരിക്ക	-9.94252
89	-9.9426
57	-9.94298
ഴിഞ്ഞ	-9.94333
▁മത്സരം	-9.9435
ന്ദർ	-9.94412
▁ട്രാൻസ്	-9.94449
ത്തുനിന്നും	-9.94471
ുമായും	-9.94471
ജല	-9.94495
▁വൻകര	-9.94546
▁32	-9.94603
ിട്ടും	-9.94625
▁പടിഞ്ഞാറു	-9.94665
ലിൻ	-9.94677
യുമായ	-9.94683
കുമാര	-9.94703
മേൽ	-9.94715
21	-9.94736
▁ഹേ	-9.94742
▁മറ്റുള്ളവ	-9.94758
▁1982	-9.9477
▁റേഡിയോ	-9.94781
▁സ്വപ്ന	-9.94783
നിയൻ	-9.94785
്യൻ	-9.94864
me	-9.9488
▁ഓം	-9.94986
ങ്ങിയ	-9.95057
പ്പം	-9.95089
▁കാണിക്കുന്ന	-9.95112
ാധി	-9.95137
▁1947	-9.95149
▁ഇനം	-9.9516
▁പഠിച്ച	-9.95217
▁കൊണ്ടാണ്	-9.95229
▁പൊതുവെ	-9.95231
ate	-9.95371
▁ആറ്റു	-9.95415
▁സ്റ്റേറ്റ്	-9.95456
▁ഐക്യ	-9.95467
തലത്തിൽ	-9.95482
ദാസ്	-9.95519
▁സാമ്യ	-9.95522
▁സ്നേഹ	-9.95524
▁ക്ഷേത്രത്തിലെ	-9.95537
പ്പർ	-9.95539
ബ്ദ	-9.95568
ലർ	-9.95577
ീവ്	-9.95609
വേല	-9.95632
പദ്ധതി	-9.95656
04	-9.95674
ളും	-9.95682
▁ബൈബിള	-9.95805
െഴുതിയ	-9.95807
▁സമ്മത	-9.95837
▁ദീപ	-9.95861
▁കയറ	-9.95905
▁ചക്ക	-9.95933
▁കുറിച്ചുള്ള	-9.95937
ഫർ	-9.95966
ത്തീ	-9.95966
മൊഴി	-9.95994
ന്റേത	-9.96001
പ്പറ	-9.96046
▁അഹ	-9.96056
▁നേര	-9.96061
▁വിട്ട	-9.96071
▁is	-9.96084
േണ്ടത്	-9.96097
▁നിൽക്ക	-9.96156
▁അച്ഛൻ	-9.96159
▁തലമുറ	-9.96189
▁വിമാനത്താവള	-9.96199
▁തങ്ങൾ	-9.96213
▁ഹബിൾ	-9.96223
▁അതിന	-9.96223
ിരിയ്ക്ക	-9.9624
ിയ്ക്കുന്ന	-9.96274
33	-9.96282
F	-9.96356
62	-9.96419
▁സഭാ	-9.96454
യോടു	-9.96457
▁മൂത്ത	-9.9647
▁ഇവരെ	-9.96472
▁തിരുവനന്തപുരത്ത	-9.965
▁വാസ്തുവിദ്യ	-9.96504
രേയും	-9.96507
▁ബൈബിൾ	-9.96508
▁II	-9.96528
ിലായി	-9.96558
ഖി	-9.96579
▁പുൽ	-9.96587
▁തയ്യാറാക്കിയ	-9.9661
▁ശതമാനമാണ്	-9.96622
▁അവര	-9.9665
ാക്രമ	-9.96704
▁ഒന്നും	-9.96719
ക്കിടയില	-9.96734
▁ലഭ്യമായ	-9.96797
ern	-9.96832
▁ജോസഫ്	-9.9685
ോത്സവ	-9.9685
▁വിദഗ്ദ്ധ	-9.96902
▁ശബ്ദം	-9.96914
▁പോരാട്ട	-9.96916
▁കുറിച്ച	-9.96916
മുള	-9.96936
▁വച്ചു	-9.96963
▁പർവത	-9.96972
കോട്ട	-9.97004
▁ആവശ്യമായ	-9.97045
▁പ്രകടന	-9.97115
▁സമ്പന്ന	-9.97136
▁വരവ	-9.97144
▁പക	-9.97178
ang	-9.97195
▁ഡയറക്	-9.97196
▁എറണാകുളം	-9.972
▁സ്മാരക	-9.97203
വന്നു	-9.97204
▁വെളിച്ച	-9.97269
ചെയ്ത	-9.97294
ഘോഷ	-9.97295
▁സമരം	-9.97337
▁തനിക്ക	-9.97367
വിജയ	-9.97434
▁സന്ദർശിക്ക	-9.97553
▁പ്രതിഫല	-9.97594
ഭാഗത്ത്	-9.97659
▁താഴ്ന്ന	-9.97663
▁ലഭ്യമാണ്	-9.97665
ിലായിരുന്നു	-9.97688
വെന്ന്	-9.97721
▁തോന്ന	-9.97731
ണ്ടൻ	-9.97776
▁പുത്രന	-9.97837
▁വർഷത്തെ	-9.97862
▁കായ	-9.97869
▁പതിനൊന്ന	-9.97907
െത്തുന്ന	-9.97913
▁മുന്നോട്ടു	-9.97917
▁രൂപീകരിക്ക	-9.9802
▁റു	-9.98028
▁അന്യ	-9.98049
▁ഉയരമുള്ള	-9.98081
▁ഉം	-9.98175
▁പിന്നെ	-9.98204
▁പുറത്താക്ക	-9.98245
▁അതുകൊണ്ട്	-9.98247
▁ചാർ	-9.98251
▁വിവാദ	-9.98251
▁ബംഗ്ലാദേശ്	-9.98331
▁ഉപകരണങ്ങൾ	-9.98339
▁കേരളത്തിന്റെ	-9.98371
▁വള്ള	-9.98402
കാരം	-9.98427
കളിലാണ്	-9.98457
▁തീവ്ര	-9.9849
▁ആറ്	-9.98495
di	-9.98507
▁കാറ്റ	-9.9851
▁വഹിച്ച	-9.98513
ചു	-9.98524
86	-9.98539
ക്കാരും	-9.98571
▁തവിട	-9.98588
▁സംഘടിപ്പിച്ച	-9.98618
ചിന്ത	-9.98622
നോട്	-9.98658
▁al	-9.98736
ഭൂത	-9.98744
▁കാട്ട	-9.98744
▁മിനി	-9.98749
മുണ്ടായ	-9.9875
▁വൈദ്യ	-9.98761
▁ടെസ്റ്റ്	-9.98791
▁കോൺഗ്രസ്സ	-9.98792
▁re	-9.98806
ക്കുറി	-9.98925
▁പമ്പര	-9.98949
▁നൂറ്റാണ്ടു	-9.98952
▁പാൽ	-9.98986
രംഗത്ത്	-9.98987
▁തലസ്ഥാനം	-9.98991
▁പ്രണയ	-9.98996
ാറുള്ളത്	-9.98997
▁തുടങ്ങുന്ന	-9.99008
▁പുറത്ത്	-9.99039
▁മരിച്ച	-9.99062
▁പൂര	-9.99065
വരിൽ	-9.99073
▁സൂചിപ്പിക്ക	-9.99076
യുന്ന	-9.99083
▁അവിടത്തെ	-9.99104
▁ചെയ്തിട്ടുണ്ട്	-9.99105
ില്ലാത്ത	-9.99108
▁തുടങ്ങ	-9.99135
▁ഭവ	-9.99228
ദൈവ	-9.9923
▁ബാങ്ക	-9.99246
ശ്ച	-9.99274
▁സാധിക്കും	-9.99283
▁സ്ഥലങ്ങളിൽ	-9.99313
▁എത്ര	-9.99315
▁ഉത്തർപ്രദേശ	-9.99336
▁ബോർഡ്	-9.99339
▁ക്രമേണ	-9.99342
തുവര	-9.99358
▁കിട	-9.99415
▁രത്ന	-9.99444
▁പുലി	-9.99491
84	-9.99514
▁അയ്യ	-9.99537
▁എന്നിവരാണ്	-9.99552
ഡിന്റെ	-9.99602
▁അവയെ	-9.99622
▁കുറിച്ചു	-9.99646
ശാസ്ത്രജ്ഞ	-9.9965
▁കുഞ്ഞു	-9.99661
രഹിത	-9.99663
▁ക്ഷണ	-9.99663
▁തിരിച്ചറിയ	-9.99669
▁വിഭജിച്ച	-9.99692
▁മരുഭൂമി	-9.99692
▁നശിപ്പിക്ക	-9.99696
▁തയ്യാറായ	-9.99724
▁സംഘടനയുടെ	-9.99736
91	-9.99776
▁നിറം	-9.99776
▁കൊണ്ടുവന്ന	-9.99822
ുമെന്നും	-9.99832
വിടെ	-9.99845
▁കോൺ	-9.99852
ിലോ	-9.99856
▁കാട്ടുപ	-9.99856
▁ഏഷ്യൻ	-9.99884
ത്തൻ	-9.99926
▁കുറച്ച	-9.99946
▁അതിനുശേഷം	-9.99985
▁വധശിക്ഷ	-10.0005
▁രണ്ടാമൻ	-10.0005
▁നെഹ്രു	-10.0005
▁കളിച്ച	-10.0005
ദിവസം	-10.0006
▁സജ്ജ	-10.0007
▁ഇംഗ്ലണ്ട്	-10.0011
ാർഥ	-10.0015
▁ആക്രമിക്ക	-10.0016
▁ശങ്കരൻ	-10.0018
▁ഹർ	-10.0019
▁മർദ്ദ	-10.0021
▁വേദി	-10.0023
ളിയ	-10.0024
▁പുറത്തിറക്കിയ	-10.0025
▁നേരിട്ട	-10.0028
സംവിധാന	-10.003
▁പാർക്ക	-10.0035
▁സ്കൂളിൽ	-10.0037
▁അനുവദിച്ച	-10.0042
▁സുൽത്താൻ	-10.0042
▁പിഴ	-10.0045
▁Co	-10.0049
▁നീളമുള്ള	-10.005
87	-10.0052
രത്തി	-10.0053
69	-10.0056
▁ക്രൈസ്തവ	-10.0057
▁ജീ	-10.0059
▁പരുവ	-10.0063
ണ്ടാ	-10.0064
ാവുകയും	-10.0068
മരുത്	-10.0069
ുണ്ടാക്കുന്ന	-10.0071
0,000	-10.0071
▁നായ്	-10.0073
രത്ന	-10.0076
▁കിരീട	-10.0078
▁90	-10.0079
▁1977	-10.0082
നേതൃത്വത്തിലുള്ള	-10.0085
▁ജു	-10.0085
▁വളർന്നു	-10.0087
all	-10.0088
ിലധിക	-10.009
ഹീ	-10.0095
▁മാനേജ	-10.0101
ിപ്പിച്ചു	-10.0107
യൊ	-10.0109
▁ഏല	-10.0109
ങ്കര	-10.0111
▁ഭൂരിഭാഗവും	-10.0114
▁ധ്രുവ	-10.0114
റിനെ	-10.0115
▁അന്തർ	-10.0116
right	-10.0116
▁നീലഗിരി	-10.0116
ടൺ	-10.0117
▁1960	-10.0118
▁an	-10.0119
നിധി	-10.0123
▁പുനര	-10.013
ലൊ	-10.0134
▁ബാങ്ക്	-10.0135
▁പക്ഷെ	-10.0135
പ്രവേശ	-10.014
▁ഏതു	-10.0143
ിനെയും	-10.0145
യ്യാ	-10.0149
ഫോൺ	-10.015
▁സാന്നിധ്യ	-10.0151
▁ഇംഗ്ലീഷ	-10.0152
▁മേഖലയിലെ	-10.0153
▁ഒരാൾ	-10.0154
ന്മാരെ	-10.0155
ill	-10.0157
▁സ്വീകരിച്ചു	-10.0168
ുമെല്ലാം	-10.0171
ക്കുട്ടി	-10.0176
ക്ല	-10.0179
▁രംഗത്ത്	-10.0185
▁നാവിക	-10.0188
▁വെളുത്ത	-10.0188
▁മ്യൂസിയ	-10.0188
▁മലയാളത്തിലെ	-10.0191
▁ചൈനീസ്	-10.0194
31	-10.0195
▁കുറയ	-10.02
▁മണൽ	-10.0205
ായിട്ടാണ്	-10.0205
▁മാറ്റങ്ങൾ	-10.0206
▁ഇതിനായി	-10.0207
▁ജപ്പാൻ	-10.0207
▁ഉണ്ടായി	-10.021
▁അനുഭവപ്പെടുന്ന	-10.0214
പ്പോലെ	-10.0215
സാര	-10.0215
▁നടത്തുകയും	-10.0218
ഇന്ത്യ	-10.022
▁പിന്തുടർന്ന	-10.0225
▁പ്രോഗ്രാമ	-10.0226
ിൽനിന്നും	-10.0226
▁വനിത	-10.0229
ക്കെതിരായ	-10.0229
▁പാപ	-10.0233
ക്കം	-10.0233
▁പ്രൊ	-10.0238
▁കത്തോലിക്കാ	-10.0241
▁ജീവിച്ച	-10.0242
ധികം	-10.0243
▁കൊള	-10.0248
ജോ	-10.025
▁പെടുന്നു	-10.0261
▁പിൻഗാമി	-10.0262
▁യുണൈറ്റഡ്	-10.0262
▁സുറിയാനി	-10.0262
കളോ	-10.0262
45	-10.0264
ശേ	-10.0267
=	-10.0268
കങ്ങൾ	-10.027
▁ജീവചരിത്ര	-10.0282
▁ഹു	-10.0286
▁അമേരിക്കയുടെ	-10.0287
▁തുടക്ക	-10.0288
▁വിരുദ്ധ	-10.0289
▁കാരാ	-10.029
▁റോമ	-10.0295
▁അയച്ച	-10.0305
ിലേയ്ക്ക്	-10.0307
▁ഒപ്പം	-10.0307
വേഗ	-10.0312
എച്ച്	-10.0314
▁നിയന്ത്രണം	-10.0324
ba	-10.0326
▁ഗ്രീസ	-10.0332
▁സുഹൃത്ത	-10.0333
ine	-10.0335
▁സിറിയ	-10.0335
▁ശ്രദ്ധേയ	-10.0339
സിനു	-10.0339
▁സൂര്യന	-10.034
▁ബാധിച്ച	-10.0341
▁ഭക്ത	-10.0342
ക്കാലത്ത്	-10.0343
▁വരുന്നത്	-10.0344
▁താപ	-10.0344
▁കപ്പല	-10.0346
ക്കീ	-10.0347
▁നൂറ്റാണ്ടിലെ	-10.0349
▁അനന്ത	-10.035
▁വികാസ	-10.035
ry	-10.0363
ുണ്ടായി	-10.0366
▁മേഖലകളിൽ	-10.0372
▁തെള്ളി	-10.0378
▁1995	-10.0378
▁ഉത്തമ	-10.0378
▁മേല	-10.038
▁ഭരണകൂട	-10.0384
▁കുറേ	-10.0384
▁ഇല്ലാത്ത	-10.0391
▁തിരഞ്ഞെടുപ്പിൽ	-10.0398
മണ	-10.0401
▁ഉണ്ടാക്കിയ	-10.0404
▁തെളിവ	-10.0406
▁ഹിന്ദുമത	-10.0408
▁ലു	-10.0411
▁പ്രാപിച്ച	-10.0415
▁അക്ഷരം	-10.0415
72	-10.0418
ങ്കോ	-10.0422
ന്മാരായ	-10.0424
ദിന	-10.0426
ത്തുകയും	-10.0426
ക്ഷയ	-10.0426
▁for	-10.0429
▁കലാം	-10.043
▁ബലി	-10.0432
▁ഫു	-10.0436
▁പാത്ര	-10.0439
▁മലന്ത	-10.0445
ുകൊണ്ടാണ്	-10.0445
മണ്ഡല	-10.0447
▁കാബൂള	-10.0449
ക്കാരായ	-10.046
▁പേർഷ്യ	-10.0468
▁ചെയ്യപ്പെട്ടു	-10.0468
▁നേരെ	-10.0473
ാനം	-10.0474
സൻ	-10.0476
ണമെന്നും	-10.0477
▁ശശി	-10.0477
ക്കോട്ട	-10.0478
▁ജ്ഞാന	-10.0484
പ്പുറം	-10.0487
▁വ്യക്ത	-10.0489
▁പേരാണ്	-10.0491
▁വ്യാപ	-10.0491
▁കമ്പ്യൂട്ടറ	-10.0492
സംയോജ	-10.0498
▁ചരിത്രത്തിൽ	-10.0499
ുവാന	-10.0504
▁കൊമ്പ	-10.0507
▁ഗവ	-10.0508
▁അഭിനയിച്ചു	-10.0514
▁പുര	-10.0516
ുപയോഗിച്ച്	-10.0517
ഗൃഹ	-10.052
▁വായിക്ക	-10.0522
▁പർവ്വത	-10.0523
▁ജലസേചന	-10.0525
ിരിക്കണം	-10.0526
▁സ്വാതന്ത്ര്യസമര	-10.0526
▁അമ്ല	-10.0526
▁പരിസ്ഥിതി	-10.0527
▁നടി	-10.0527
▁മുന്നേറ്റ	-10.0528
▁തരത്തിലുള്ള	-10.0531
▁ആസ്ഥാനം	-10.0534
കളായിരുന്നു	-10.0535
.3	-10.0538
▁അമ്പല	-10.0541
▁വിരി	-10.0544
▁കഴിഞ്ഞാൽ	-10.0544
▁വിളിച്ചു	-10.0546
തിനാല	-10.0546
സ്ഥാനം	-10.0546
യുഗ	-10.0548
▁അത്തര	-10.0555
▁ബംഗ്ലാദേശ	-10.0555
മാക്കുന്ന	-10.0558
to	-10.0559
ാണെങ്കിൽ	-10.0559
▁കലർന്ന	-10.0561
ദേഹ	-10.0562
▁ലൈബ്രറി	-10.0563
▁സ്റ്റേഷന	-10.0564
യിലെത്തി	-10.0565
പ്രസ്ഥാന	-10.0566
▁ആത്മീയ	-10.0567
ers	-10.0568
▁നീര	-10.0569
▁ഖണ്ഡ	-10.057
▁അറബ്	-10.0571
വ്വ	-10.0573
ടമ്പ്	-10.0573
▁പൂക്കൾ	-10.0574
▁ബെർ	-10.0574
▁നാശ	-10.058
▁വിഭവ	-10.0581
മന്ത്രി	-10.0582
▁ജീവചരിത്രവു	-10.0582
▁കണ്ട്	-10.0585
മുണ്ട	-10.0586
▁സുൽത്താന	-10.0587
ീഷ	-10.0588
▁അവസാനത്തെ	-10.0588
മുണ്ടാക	-10.0588
ായുള്ള	-10.0589
സാദ	-10.0589
▁തൊട്ടു	-10.0595
▁ഡിഗ്രി	-10.0602
▁1979	-10.0605
▁സാധ്യമാ	-10.0607
▁ഏഴ്	-10.0611
▁പൂർണമായ	-10.0619
ശാസ്	-10.062
▁കുഴി	-10.062
▁അധ	-10.0623
▁ഇളം	-10.0633
കുടുംബ	-10.0634
▁ന്യൂയോർക്ക	-10.064
▁ചൂണ്ട	-10.064
▁പകർന്ന	-10.0641
▁തുറന്ന	-10.0641
ാകട്ടെ	-10.0644
▁അന്നു	-10.0657
▁കാണുന്നത്	-10.0657
▁പ്രൊഫ	-10.0658
▁വീടുകൾ	-10.0659
▁ഉപയോഗിക്കാറുണ്ട	-10.0661
▁നീണ്ടു	-10.0661
▁അനുബന്ധ	-10.0661
▁വക	-10.0663
തൊ	-10.0666
01	-10.0666
▁ചിന്ന	-10.0674
▁നിലവിലുണ്ട്	-10.0678
▁ഇൻഡ്യ	-10.068
▁ദേവാലയ	-10.0682
ങ്ക്	-10.0685
ഫെ	-10.0686
▁കൊണ്ടുവര	-10.0687
ിരിക്കുക	-10.069
ഞ്ഞിലി	-10.0695
ഞ	-10.0696
▁ഇളയ	-10.0699
▁ഇരുപത	-10.0701
▁ഉയർന്നു	-10.0704
ap	-10.0705
61	-10.0714
▁ലോക്	-10.0717
▁സുപ്രീം	-10.0717
▁ശ്ലോക	-10.0717
▁സത്യാഗ്രഹ	-10.0718
▁ചെലുത്ത	-10.0718
▁മാനസിക	-10.0721
▁അപ്പോൾ	-10.0726
തയിൽ	-10.0727
മിന	-10.0731
ണീ	-10.0739
▁പിള്ള	-10.0745
▁പോലീസ	-10.075
നായും	-10.0752
ub	-10.0753
▁ട്രാ	-10.0755
▁പുരോഗതി	-10.0756
▁ഭയ	-10.0757
▁ദില്ലി	-10.0757
മീറ്ററ	-10.0757
▁അക്ബർ	-10.0758
സസ്യ	-10.0761
▁ശ്രീകൃഷ്ണ	-10.0762
▁കേട്ട	-10.0766
▁എത്തുന്ന	-10.0767
▁പോൾ	-10.0768
ala	-10.0775
ck	-10.0785
▁സഞ്ചാര	-10.0786
▁മുഹമ്മദ	-10.0791
▁ലക്ഷ	-10.0794
▁നന്നായി	-10.0794
▁കാലിഫോർണിയ	-10.0795
മാകുന്നു	-10.0795
▁ലാൽ	-10.0797
ഗുണ	-10.0799
▁ഭക്തി	-10.0804
പൂര	-10.0806
▁നല്കിയ	-10.0807
താണെന്ന	-10.0815
▁കുട്ടികൾ	-10.0816
▁അദ്ദേഹത്തിനു	-10.0818
▁കരുതി	-10.0821
▁ഗാനം	-10.0834
▁ശീമപ്പ	-10.0834
▁സംരംഭ	-10.0834
▁കണ്ടുവരുന്ന	-10.0835
ടീ	-10.0836
ടിച്ച	-10.0836
▁കെട്ടി	-10.0842
▁രാജാവായ	-10.0848
ve	-10.0849
പ്പൊ	-10.0851
ചെമ്പകം	-10.0852
▁കാരണമായ	-10.0853
ത്തിനെതിരെ	-10.0858
▁35	-10.086
മുദ്ര	-10.0862
▁വർഷങ്ങൾ	-10.0863
▁ഇതര	-10.0874
▁ജർമനി	-10.0874
▁സംവിധായകന	-10.0875
▁നാല	-10.0877
▁ആരംഭിക്ക	-10.0878
▁ലീ	-10.0878
കൂടാതെ	-10.0878
▁സേവ	-10.088
▁വർഷത്തിലെ	-10.0882
▁സിംഹ	-10.0887
▁ഇടതു	-10.0893
▁ഡേ	-10.0897
ിനൊപ്പം	-10.0901
▁ക്രിയ	-10.0905
▁ജലം	-10.0906
▁സുന്ദര	-10.0908
▁സാൻ	-10.091
ചാരി	-10.0912
▁കേന്ദ്രം	-10.0913
▁ജഗ	-10.0913
▁from	-10.0913
▁ഉത്പാദിപ്പിക്ക	-10.0913
▁അപേക്ഷിച്ച്	-10.0916
▁നല്ക	-10.0917
▁നഷ്ടപ്പെട്ട	-10.0921
മാണു്	-10.0921
നാമം	-10.0933
ph	-10.0933
▁സേ	-10.0933
▁അബു	-10.094
▁ഓട്ടോ	-10.0944
ങ്ങളിലേ	-10.0948
ചര്യ	-10.0948
▁പ്രതീക്ഷ	-10.0953
▁തട്ട	-10.0957
com	-10.0961
മന്ദിര	-10.0961
▁അവൾ	-10.0966
▁കട്ടി	-10.097
05	-10.0972
▁താഴെയുള്ള	-10.0976
ദാസ	-10.0978
ിലേയും	-10.0981
.20	-10.0982
ana	-10.0983
▁ഊർജ്ജ	-10.0983
▁റിപ്പോർട്ട്	-10.0983
▁നബിയുടെ	-10.0985
ue	-10.0985
ഞാവൽ	-10.0988
മാണെന്നും	-10.0989
▁ധാര	-10.0991
▁വ്യാവസായിക	-10.0993
▁രൂപകല്പന	-10.0995
▁പരസ്യ	-10.0996
▁1948	-10.0998
▁നിഷ്	-10.1
93	-10.1006
ന്യൂ	-10.1016
മല്ലി	-10.1017
▁എതിര	-10.1026
▁പറ്റ	-10.1026
▁വസ്തുക്കൾ	-10.1033
74	-10.1035
▁1993	-10.1036
ഗ്രാമ	-10.1036
▁തറ	-10.1037
▁തുമ്പി	-10.1041
▁നെല്ലി	-10.1045
▁ഇവയ്ക്ക്	-10.1049
▁നിർമ്മിക്കുന്ന	-10.1049
▁ഇദ്ദേഹത്തെ	-10.105
▁ഗ്ല	-10.1059
▁പരിശീലന	-10.1064
▁co	-10.107
▁വർദ്ധിപ്പിക്ക	-10.1073
പ്പെട്ടിരുന്ന	-10.1074
വിശകലന	-10.1075
▁1986	-10.1076
കൊള്ള	-10.108
▁ചന്ദ	-10.1081
▁അബ്	-10.1083
▁പുനഃ	-10.1086
ധാരണ	-10.1088
▁ശേഖരിക്ക	-10.11
രൂപത്തിൽ	-10.1101
▁ഭൂരിപക്ഷ	-10.1105
▁പൂർത്തിയാക്ക	-10.1105
▁സംസ്	-10.1106
പട്ട	-10.1106
▁സന്ധി	-10.1106
▁ക്ഷേത്രത്തിന്റെ	-10.1107
▁കൃത്രിമ	-10.1113
▁മണിക്കൂറ	-10.1113
▁ഉദ്യോഗ	-10.1116
വിഷയ	-10.1117
▁വിളിച്ച	-10.1119
ലാവ	-10.1124
▁നിർത്തി	-10.1126
▁സെൻസസ്	-10.1129
▁വീട്ടിൽ	-10.1129
രാവ	-10.1133
നുമായി	-10.1134
▁പ്രഖ്യാപിച്ച	-10.1135
പൂജ	-10.1139
▁നിർമ്മ	-10.1146
▁അഫ്ഗാനിസ്താന	-10.1147
▁തള്ളി	-10.1147
▁നേടിയിട്ടുണ്ട്	-10.1152
▁വൈദ്യുതി	-10.1152
▁അനുവദിക്ക	-10.1154
▁ഉപേക്ഷിച്ച	-10.1154
▁രസതന്ത്ര	-10.1155
ca	-10.1156
പോയി	-10.1156
▁1989	-10.1157
▁ഇദ്ദേഹ	-10.1158
▁താലൂക്കിൽ	-10.1159
ാറുള്ള	-10.1162
▁ബാർ	-10.1164
▁നടക്കുന്നത്	-10.1164
ടം	-10.1165
29	-10.1168
▁പരിചയ	-10.117
▁ഇതാണ്	-10.1172
▁കടുവ	-10.1173
▁ഖര	-10.1173
▁ശനി	-10.1174
▁ഭാരം	-10.1174
▁നക്ഷത്രങ്ങൾ	-10.1177
▁കായ്	-10.118
83	-10.1182
ുന്നതിലും	-10.1183
▁പശ	-10.1189
▁പോലെയുള്ള	-10.1189
▁അന്വേഷണ	-10.1194
▁ക്രിസ്തീയ	-10.1194
▁രാജ്ഞി	-10.1194
പ്പുകൾ	-10.1197
▁1987	-10.1198
▁വിദ്യാ	-10.1198
ക്കണ്ണി	-10.1198
സൂത്ര	-10.1203
▁ഏഴ	-10.1205
മറ	-10.1207
▁ക്രിസ്തുമത	-10.1211
വ്രത	-10.1214
71	-10.1217
▁ഇള	-10.1219
പ്പണി	-10.1221
യുമായിരുന്നു	-10.1225
▁2002	-10.1231
ഗുപ്ത	-10.1232
▁ആസൂത്രണ	-10.1236
▁സംഘടിപ്പിക്ക	-10.1236
ത്തെപ്പറ്റി	-10.1236
▁എന്നിവയെ	-10.1237
▁1984	-10.1239
U	-10.1239
▁Sh	-10.1239
▁മാർഗ	-10.1241
▁നല്കി	-10.1242
ജ്ഞാന	-10.1244
▁ലാണ്	-10.1248
യിലേക്കുള്ള	-10.125
▁കീഴിലുള്ള	-10.125
23	-10.1255
▁പരന്ന	-10.1257
ത്തിനുള്ളിൽ	-10.1258
▁പഠനങ്ങൾ	-10.1259
▁സുപ്രധാന	-10.126
വേദന	-10.126
യോഗം	-10.1263
▁നിശ്ചിത	-10.1276
▁സൂക്ഷിച്ച	-10.1277
വിനിമയ	-10.1277
▁മരണശേഷം	-10.1281
▁സമാ	-10.1283
ക്കുള്ളിൽ	-10.1285
നാടക	-10.1288
ര്	-10.129
യോടൊപ്പം	-10.1294
▁സാക്ഷികൾ	-10.1294
▁സഹായക	-10.1295
▁ബോസ്	-10.1302
ുന്നില്ല	-10.1302
ശില	-10.1304
യെക്കുറിച്ച്	-10.1306
▁വേണം	-10.1306
▁ശ്രമം	-10.1315
▁കൗൺസിൽ	-10.1317
▁നിലവിലുള്ള	-10.1317
▁പാവ	-10.1318
▁കീഴ്	-10.1321
▁ഗ്	-10.1321
W	-10.1322
▁ആഗ	-10.1322
▁മെട്രോ	-10.1324
▁at	-10.1327
ുടേത	-10.1328
ക്കാരൻ	-10.1329
▁ബോംബെ	-10.1329
ഭൂ	-10.133
ത്തിനുവേണ്ടി	-10.133
▁200	-10.1331
▁വയ്ക്ക	-10.1332
▁പഠിപ്പിക്ക	-10.1336
▁അതിലെ	-10.1338
▁കൂടുതലായി	-10.1341
▁കേരളീയ	-10.1352
▁ലഭ്യമാക്ക	-10.1352
▁ഡീ	-10.1357
▁അംഗീകാര	-10.1359
▁അധിനിവേശ	-10.1359
▁ബാഹ്യ	-10.1359
▁എത്തിച്ചേര	-10.1359
▁സമാന്തര	-10.1361
▁ആണു	-10.1364
▁അർദ്ധ	-10.1364
▁തീർത്ത	-10.1364
വാൾ	-10.1372
▁വിജ്ഞാന	-10.1373
▁പുത്രനായ	-10.1378
നാക്കി	-10.1378
നുമായിരുന്നു	-10.1378
▁പ്രകടമാ	-10.1381
യിലേയ്ക്ക്	-10.1386
വ്യൂ	-10.1389
ളോ	-10.1393
▁പറ്റി	-10.1395
ിലേക്കുള്ള	-10.1397
▁പാമ്പ	-10.1398
▁ഇന്റർ	-10.14
▁ഗോവിന്ദ	-10.14
ഗണം	-10.1401
▁1956	-10.1405
ദൃശ്യ	-10.1406
▁പരിശീലനം	-10.1409
ദേവി	-10.1411
▁റൊ	-10.1411
▁വർഷവും	-10.1414
▁ഇപ്രകാര	-10.1414
സിസ്	-10.1416
▁സാധിച്ച	-10.1418
▁നൽകുക	-10.1418
മാറി	-10.1419
തിനാലാണ്	-10.142
▁ഒന്ന്	-10.142
ഗോള	-10.1422
▁ഇതോടെ	-10.1426
ഷിക	-10.1429
▁നിലയ	-10.143
▁ചുറ്റി	-10.1433
നൈ	-10.1438
മ്മി	-10.1439
▁സ്റ്റേഡിയ	-10.1442
▁വേനൽക്കാല	-10.1442
▁നന്ദി	-10.1445
▁1994	-10.1445
ലേറ്റ	-10.1448
▁തടസ്സ	-10.1448
▁പരാ	-10.1449
▁നാനാ	-10.145
▁പൂർത്തിയാക്കി	-10.145
മാട	-10.1451
▁അപേക്ഷ	-10.1453
▁മേള	-10.1453
▁മരിച്ചു	-10.1457
▁പ്രത്യേകിച്ച്	-10.146
94	-10.1462
▁വ്യത്യസ്തമായി	-10.1471
സാഹ	-10.1471
കോശ	-10.1473
കക്ഷി	-10.1477
നുമാണ്	-10.1481
▁ഉത്ഭവ	-10.1482
▁അത്ര	-10.1483
▁ജപ്പാ	-10.1487
കുളം	-10.1492
▁വാല്യ	-10.1495
▁സച്ച	-10.1499
▁കിഴക്ക	-10.15
▁ന്റെ	-10.1505
രുണ	-10.1511
▁കരുതുന്ന	-10.1514
▁എന്നിവര	-10.1515
▁റൈ	-10.1516
▁കൊട്ട	-10.152
▁വൃ	-10.152
സമ	-10.1521
▁വയല	-10.1522
മാർഗ്ഗ	-10.1523
▁ഭീഷണി	-10.1526
▁അക്കേഷ്യ	-10.1528
▁വെള്ളിവരയൻ	-10.1528
▁ദിനമാണ്	-10.1529
▁ചലച്ചിത്രമാണ്	-10.1532
ടക്കമുള്ള	-10.1533
▁ധരിച്ച	-10.1536
▁പ്രാധാന്യ	-10.1539
നാവ	-10.1542
▁നാടൻ	-10.1542
▁വികസിപ്പിച്ച	-10.1542
▁പിടിച്ച	-10.1545
▁കടന്ന	-10.1547
▁ആക്രമണം	-10.155
▁ഒഴുകി	-10.1553
യാൾ	-10.1555
▁തോട്ട	-10.1555
▁ഉണ്ട	-10.1557
ാരംഭിച്ച	-10.1561
േയ്	-10.1562
മെന്ന്	-10.1563
▁ഉപയോഗപ്പെടുത്ത	-10.1565
▁പവിഴ	-10.1568
ജീ	-10.1568
▁ജയിലിൽ	-10.1568
▁തോമസ്	-10.1568
▁താഴ്വര	-10.1571
▁പുറമെ	-10.1572
നൂ	-10.1578
▁വിജയിച്ച	-10.1579
▁ലഭിക്കുന്നു	-10.1579
▁അകല	-10.1579
▁l	-10.1582
▁ഇനി	-10.1583
▁ക്ലാസ	-10.1583
▁പോർ	-10.1586
32	-10.1587
52	-10.1589
▁വർണ	-10.159
av	-10.1598
▁വിവരണ	-10.16
▁ചൊ	-10.1601
യൂർ	-10.1603
ില്ലാതെ	-10.1605
▁Ra	-10.161
▁അലക്സാണ്ടർ	-10.161
▁ബാംഗ്ലൂര	-10.161
▁സ്വാഭാവിക	-10.161
▁ഈശ്വര	-10.1611
▁നൽകുകയും	-10.1613
▁വിശ്വസിച്ച	-10.1614
▁മേനോൻ	-10.1617
▁വർക്ക	-10.1626
▁കടക്ക	-10.1627
▁ചട്ട	-10.163
ഖണ്ഡ	-10.1632
ുപയോഗിക്കുന്ന	-10.1633
▁തവള	-10.1633
ക്കൂടി	-10.1639
▁ദൗത്യം	-10.1642
▁ശ്രമിച്ചു	-10.1642
▁സാധ	-10.1648
▁പൂർത്തിയായ	-10.1654
▁കൊച്ചു	-10.1655
▁1988	-10.1658
▁ഒരുമിച്ച	-10.1659
▁നഗരത്തിലെ	-10.166
▁ചിത്രീകരിച്ച	-10.1661
ുണ്ടാകും	-10.1664
▁ഓടി	-10.1665
ുന്നതുവരെ	-10.168
ലങ്കാര	-10.1685
ിനെതിരായ	-10.1687
▁ജീവന	-10.1691
▁കുറ്റി	-10.1693
▁ജനകീയ	-10.1696
▁രാഷ്ട്രപതി	-10.1698
ത്തേക്കു	-10.17
▁1964	-10.17
▁പണിയ	-10.1702
▁ദോ	-10.1709
▁ഔദ്യോഗികമായി	-10.1715
▁നിലവാര	-10.1717
▁രൂപത്തിൽ	-10.172
ഡുകൾ	-10.1727
ഗത	-10.173
▁താല്പര്യ	-10.1738
▁മുതിർന്ന	-10.1738
▁ധാന്യ	-10.1739
▁അധീനതയില	-10.174
▁പ്രസവ	-10.1741
▁വലിച്ച	-10.1749
▁വയസ	-10.1749
സിന്	-10.1751
▁പമ്പ	-10.1756
ിയ്ക്കുന്നു	-10.176
▁ജനസംഖ്യാ	-10.1761
നിന്ന	-10.1763
▁ജ്യോതി	-10.1764
▁കാമറ	-10.1765
▁ചതുര	-10.1768
▁പ്രായം	-10.1768
▁വിശ	-10.1768
▁നേതാവായ	-10.1769
വച്ചു	-10.1772
▁പ്രത്യക്ഷപ്പെട	-10.1773
▁ഇന്തോനേഷ്യ	-10.1782
▁വല്ലഭ	-10.1782
▁ഹ്യൂ	-10.1782
▁ദർ	-10.1785
▁ആക്ട	-10.1785
▁സ്വാതന്ത്ര്യം	-10.1788
▁ജൂത	-10.1789
ജീവ	-10.1789
ാകും	-10.1799
▁വെയർ	-10.1808
ിലേറെ	-10.1809
▁സഹായിക്കുന്നു	-10.1813
▁70	-10.1814
▁ചലച്ചിത്രം	-10.1818
കുറ	-10.1819
▁സാധിക്കുന്ന	-10.1819
ടക്കം	-10.182
▁ശരിയായ	-10.1821
ുള്ളു	-10.1824
▁സാങ്കേതികവിദ്യ	-10.1826
പ്രഭ	-10.1827
▁കുടുംബത്തിലെ	-10.183
▁എഡിറ്റ	-10.183
▁പാര	-10.1831
ക്കാട	-10.1835
▁അവതരിപ്പിച്ചു	-10.1837
▁ധർമ	-10.1837
ങ്ങളിലൊന്നാണ്	-10.1837
▁മണ	-10.184
▁ചായ	-10.185
▁അഷ്ട	-10.1851
▁വിതരണ	-10.1852
▁പുസ്തകങ്ങൾ	-10.1854
▁നൃത്തം	-10.1858
▁പേടക	-10.1859
▁പുരസ്കാരവും	-10.186
▁പശ്ചാത്തല	-10.1861
ൾഡ്	-10.1864
▁വ്യത്യസ്തമായ	-10.1864
▁വാൽ	-10.1865
▁സഹായിക്ക	-10.1867
ടങ്ങിയ	-10.1868
▁ഛിന്നഗ്രഹ	-10.1868
തവണ	-10.1875
▁ഗവൺ	-10.1876
വിരുദ്ധ	-10.188
യല്ല	-10.1881
രായിരുന്നു	-10.1883
കൃഷി	-10.1883
മണ്ണ	-10.1887
▁ചരിത്രത്തിലെ	-10.1888
▁വ്യക്തമായ	-10.1888
▁സെൻ	-10.1888
▁ഫ്രഞ്ചു	-10.1891
▁ലിഖിത	-10.1891
സ്ഥാനത്ത	-10.1892
▁ചുറ്റും	-10.1897
ens	-10.1902
രോപ	-10.1904
▁പൊതുവായ	-10.1905
ങ്ങളുമാണ്	-10.191
▁കർമ	-10.191
▁മോഹൻ	-10.191
മെന്നും	-10.1911
▁സന്തോഷ	-10.1912
▁Ar	-10.1914
▁തണൽ	-10.1914
ക്കാർക്ക്	-10.1917
ിക്കുമ്പോൾ	-10.1921
▁വഞ്ചി	-10.1923
ുപയോഗിച്ച	-10.1924
35	-10.1926
▁സംഭാവനകൾ	-10.1927
ഘാത	-10.1927
ച്യ	-10.1934
▁കരാറ	-10.1939
▁നേതാവ്	-10.1941
▁കൊറിയ	-10.1944
▁പദ്യ	-10.1951
▁സന്ദർഭ	-10.1956
▁രാവിലെ	-10.1956
▁വടക്കുംനാഥ	-10.1957
▁മടങ്ങ	-10.1958
▁പട്ടികയിൽ	-10.1958
ഗുരു	-10.1959
▁അംശ	-10.1959
▁ധാരാളമായി	-10.1962
പറയ	-10.1963
▁പങ്ക്	-10.1963
ിറങ്ങ	-10.1964
▁വസിക്കുന്ന	-10.1966
നിന്നുള്ള	-10.1966
▁മാറ്റം	-10.1966
63	-10.1967
▁മുകളില	-10.1968
▁എന്നതായിരുന്നു	-10.1976
▁താഴ	-10.1977
▁വൈസ്	-10.1978
▁ആഗ്ര	-10.1982
▁ഭരിച്ച	-10.1983
ാദേവി	-10.199
വിധി	-10.1993
▁കോണ	-10.1995
▁ക്രിസ്ത്യൻ	-10.2
▁ദൈവം	-10.2002
തിനിടെ	-10.2009
▁റിപ്പോർട്ട	-10.201
▁തേങ്ങ	-10.2013
▁മാറ്റിയ	-10.2014
▁മനസ്സില	-10.2018
so	-10.2023
▁വലതു	-10.2027
▁സംസാരിക്കുന്ന	-10.2028
ോടും	-10.2029
▁വളര	-10.2036
വചന	-10.2038
▁സൊ	-10.2043
ാശയ	-10.2043
▁റെക്കോർഡ	-10.2044
▁ഏറ്റുമുട്ട	-10.2044
▁കാഞ്ഞിര	-10.2044
▁ഗ്രീക്കു	-10.2045
▁വടക്കുപടിഞ്ഞാറ	-10.2045
▁ബുദ്ധിമുട്ട	-10.2045
▁1985	-10.2049
▁ഗവണ്മെന്റ്	-10.2049
▁ചൊല്ല	-10.2049
▁വ്യാഴ	-10.205
കുട്ടി	-10.205
▁വിസ്	-10.2051
▁മുറിച്ച	-10.2051
▁മുഖം	-10.2054
ുണ്ടാക്കിയ	-10.2054
▁സയൻസ്	-10.2056
▁നീരാ	-10.2058
▁കൈമാറ	-10.2058
▁ഓല	-10.2062
▁ഭരണകാലത്ത്	-10.2068
▁മടങ്ങി	-10.2078
▁ദേവത	-10.2084
▁പ്രസ്തുത	-10.2089
▁വിസ്തീർണ	-10.2089
▁എന്നിരുന്നാലും	-10.2089
▁പുണ്യ	-10.2089
▁ഒബാമ	-10.2089
▁പ്രാർത്ഥന	-10.209
▁രാത്തവള	-10.209
തെന്ന	-10.2091
▁ആയിരിക്കും	-10.2092
▁In	-10.2094
▁ശ്രീരാമ	-10.2095
ഹാരി	-10.2096
▁യുഗ	-10.2099
▁വാക്കിന	-10.2101
▁വഹിച്ചു	-10.2103
ain	-10.2105
ഴൽ	-10.2105
▁be	-10.2109
ക്രീ	-10.211
▁ഹബിള	-10.2112
▁കളിക്കാര	-10.2117
▁അക്കൗണ്ട	-10.2121
ന്റോ	-10.2123
▁പരിഭാഷ	-10.2123
▁ലക്ഷണ	-10.2125
ലാൻഡ്	-10.2129
▁യാതൊരു	-10.2133
ിടത്ത	-10.2135
▁1972	-10.2137
▁തോതിൽ	-10.2143
▁രീതിയിലുള്ള	-10.2145
▁കപൂർ	-10.2146
▁ഷഡ്	-10.2153
▁കാരണമാക	-10.2154
സാധന	-10.2156
▁നിർബന്ധിത	-10.216
▁സ്ഥാപനം	-10.2161
ni	-10.2167
▁സുരക്ഷിത	-10.2172
മിത്ര	-10.2174
▁താഴെപ്പറയുന്ന	-10.2178
▁തികച്ചും	-10.2178
▁സംഗീതസംവിധാനം	-10.2178
▁തെക്കുകിഴക്ക	-10.2179
▁ഭീകര	-10.218
ുകളില	-10.2183
▁കുമാര	-10.2188
▁രോഗം	-10.2188
ിക്കുകയുണ്ടായി	-10.2189
▁അവിട	-10.219
▁കുടുംബം	-10.219
രംഗത്ത	-10.2192
വർത്തന	-10.2212
▁ചൊവ്വ	-10.2213
▁ചേരുന്ന	-10.2218
▁സ്ഥാപിച്ചത്	-10.2221
▁സഞ്ചരിച്ച	-10.2223
▁മേൽനോട്ട	-10.2223
▁കന്നഡ	-10.2223
▁ഭഗ	-10.2223
▁സമർപ്പിച്ച	-10.2224
▁കഴിഞ്ഞ്	-10.2225
ഫൈ	-10.2228
▁സഹകരണ	-10.2228
▁വധ	-10.2229
കേരള	-10.2231
mm	-10.2232
▁വെറും	-10.2237
ഹാർ	-10.2237
നക്ഷത്ര	-10.224
▁ഡയറി	-10.2242
▁അഗ്ര	-10.2244
▁നദീതട	-10.2247
▁ഉപരിതല	-10.2249
▁ഒക്	-10.2253
▁വിശേഷിപ്പിച്ച	-10.2255
▁ഫലം	-10.2258
▁പൗര	-10.2266
▁1975	-10.2268
▁അത്ഭുത	-10.2268
▁അട്ടിമറി	-10.2268
▁വീട്ടി	-10.2269
ന്മാർക്ക്	-10.2269
▁ഇരുൾ	-10.2271
മ്പൻ	-10.2271
▁പ്രോട്ടോ	-10.2271
▁ചിര	-10.2273
▁ദിവസവും	-10.2278
▁പദാർഥ	-10.2279
▁രാജാ	-10.2279
▁വ്യാ	-10.2283
▁അടച്ച	-10.2283
▁പുത്രി	-10.2284
▁റിപ്പബ്ലിക്	-10.2287
ിരുന്നെങ്കിലും	-10.2291
▁നിരക്ക്	-10.2296
രെയും	-10.2298
▁തൊലി	-10.2298
ുണ്ടാക്കി	-10.2299
▁കഴിച്ച	-10.2303
ധീ	-10.2304
▁വരുത്തി	-10.2306
▁ദക്ഷിണാഫ്രിക്ക	-10.2314
▁ദൈർഘ്യ	-10.2314
▁ആംഗുലർ	-10.2314
▁അസുഖ	-10.2314
▁സെന്റർ	-10.2314
▁നിലനിന്ന	-10.2317
മുണ്ടായി	-10.2319
▁1958	-10.2319
▁മേഘ	-10.232
മാറ്റി	-10.2323
▁300	-10.2329
▁കപ്പൽ	-10.233
ദേവത	-10.2334
▁പടി	-10.2338
▁ഭഗത്	-10.2341
▁ന്യായ	-10.2342
ib	-10.2346
▁സമാനമായ	-10.2348
▁സഹായം	-10.2348
ത്തിലുണ്ട്	-10.2351
▁റേ	-10.2353
▁അഗസ്തീനോസ	-10.236
▁രൂപവത്കരിച്ച	-10.236
▁ദാരിയസ	-10.2362
▁കേൾക്ക	-10.2362
തെന്നു	-10.2362
▁ആഗസ്റ്റ്	-10.2363
ധിഷ്ഠിത	-10.2363
ങ്ങളോടു	-10.2365
▁തെളിയിക്ക	-10.2366
▁കുറയ്ക്ക	-10.2375
മാർക്ക്	-10.2377
▁പെരുമ്പ	-10.2377
▁പറക്ക	-10.2378
▁ആരാധനാ	-10.238
▁വിളിക്കുന്നത്	-10.238
▁വെസ്റ്റ്	-10.2381
▁വിവരിക്കുന്ന	-10.2383
▁കടത്ത	-10.2387
▁വായന	-10.2388
▁പരാജയപ്പെടുത്തി	-10.2391
▁മലയാളി	-10.2397
▁സഹോദരൻ	-10.2399
▁ബാംഗ്ലൂർ	-10.2405
▁പത്ത	-10.2407
െപ്പോലെ	-10.2408
ദാർ	-10.2416
ുകിടക്കുന്ന	-10.242
▁ചേർന്നാണ്	-10.2422
▁ബൊ	-10.2423
ത്തൂർ	-10.2424
സ്വഭാവ	-10.2426
▁അക്കാലത്ത	-10.2428
▁45	-10.2429
▁അകലെയാണ്	-10.2433
സിറ്റി	-10.2433
റിക്	-10.2436
▁ഭാഷകളിൽ	-10.2437
▁എഴുതപ്പെട്ട	-10.2439
▁സിസ്റ്റ	-10.2444
▁നീളവും	-10.2447
പിച്ച	-10.2449
▁വാക്ക്	-10.2451
▁വിശദീകരിക്ക	-10.2451
▁വികസിച്ച	-10.2452
ാനന്തര	-10.2452
ൂടെ	-10.2452
▁പങ്കെടുത്തു	-10.2452
▁അല്പം	-10.2453
▁സമാഹാര	-10.2453
▁പരിവർത്തന	-10.2454
▁മോശ	-10.2457
▁ടെക്	-10.2459
പ്രദ	-10.2461
▁ഭാവി	-10.2464
▁ആസ്ഥാനമായ	-10.2465
76	-10.2466
▁നേതൃത്വ	-10.2467
പുസ്തക	-10.2469
▁വാദ്യ	-10.2474
▁വാർ	-10.2478
ങ്ങൾക്കായി	-10.2481
ചേ	-10.2482
▁അവസരം	-10.2483
▁പൗ	-10.2485
▁മത്സരങ്ങൾ	-10.2485
▁ദാസ്	-10.2488
▁ആണെന്ന	-10.2489
▁സമീപം	-10.2492
ുണ്ടാക	-10.2494
▁ഡാറ്റ	-10.2496
▁പ്രദർശിപ്പിക്ക	-10.2498
▁കരിവേല	-10.2499
▁സിഖ്	-10.25
▁എതിർത്ത	-10.2501
▁മഹാരാഷ്ട്ര	-10.2502
▁1967	-10.2503
9	-10.2505
▁റാന്നി	-10.2508
മാറ	-10.2514
ll	-10.2519
▁പശു	-10.2523
▁ശേഷമാണ്	-10.2524
ങ്ങും	-10.2528
▁ഗ്രാമത്തിൽ	-10.253
ian	-10.2538
▁പുന	-10.2544
▁ഹൈദരാബാദ	-10.2544
▁വീഡിയോ	-10.2544
▁വെള്ളച്ചാട്ട	-10.2544
▁പരിക്രമണ	-10.2544
വള്ളി	-10.2547
സ്റ്റിക്	-10.255
▁നിർമ്മിച്ചത്	-10.2551
▁ഭൗതികശാസ്ത്ര	-10.2551
ൂരിലെ	-10.2552
▁താമസിക്കുന്ന	-10.2563
▁ചിത്രീകരണ	-10.2563
െല്ലി	-10.2564
▁നേതാക്കള	-10.2567
▁ജനന	-10.2567
eg	-10.2568
മിനി	-10.2569
▁വസ്തു	-10.2571
ക്കുറിച്ച്	-10.2579
ലിനെ	-10.2582
▁യുടെ	-10.2585
കാലഘട്ട	-10.2586
▁വീഴ	-10.2587
▁കൊട്ടാരം	-10.2588
സ്കി	-10.259
▁പത്തനംതിട്ട	-10.2591
▁തെക്കുപടിഞ്ഞാറ	-10.2591
▁ഭ്രമണപഥ	-10.2592
▁ചോര	-10.2592
െക്കാൾ	-10.2594
പ്രദേശത്ത	-10.2596
▁പരിപാടികൾ	-10.2598
▁19-	-10.2598
nd	-10.2598
പ്പട	-10.2601
▁ഭാഗവത	-10.2602
ya	-10.2603
▁താമസം	-10.2605
▁മലനിരകള	-10.2614
ക്കുറവ	-10.2615
പീ	-10.2618
▁ദ്വീപ്	-10.2619
▁ആത്മാവ	-10.2619
▁പേരുകൾ	-10.2619
▁ലാഭ	-10.2621
ണ്ഠ	-10.2626
▁ചെയ്തിരുന്ന	-10.2629
▁യാത്രാ	-10.2635
▁സമുദ്രനിരപ്പിൽ	-10.2638
▁ഗെയിം	-10.2638
▁പോഷക	-10.2638
92	-10.2638
▁പൂർത്തിയാക്കിയ	-10.2639
ik	-10.2641
ran	-10.2644
▁ചുര	-10.2646
▁നദികൾ	-10.2653
ക്ഷണ	-10.2653
കളോട്	-10.266
▁അപൂർവ്വ	-10.266
ലിലെ	-10.266
ോടു	-10.2662
▁സ്ഥാപനങ്ങൾ	-10.2665
മദ്ധ്യ	-10.2666
▁കാര്യമായ	-10.2669
▁കണ്ടെത്തിയത്	-10.267
▁നെൽ	-10.267
▁പഠിച്ചു	-10.2671
▁പത്മ	-10.2672
മന്ത്ര	-10.2678
ങ്ങളിലുള്ള	-10.2683
ിലുമായി	-10.2684
▁പുരോഹിത	-10.2685
▁മസ്ജിദു	-10.2685
▁വിഭജിക്ക	-10.2685
mp	-10.269
▁മുറ	-10.2692
▁ബാനറി	-10.2693
സോറസ്	-10.2694
▁പട്ടണം	-10.2694
ക്കടുത്ത	-10.2695
▁ഗുൽ	-10.27
ബാർ	-10.27
▁ഖാദി	-10.2701
▁മാർഗ്ഗം	-10.2703
നോവ	-10.2705
ഛ	-10.2708
മാണുള്ളത്	-10.2709
വണ്ണ	-10.2709
▁നോർ	-10.2709
സംഗീത	-10.2711
ക്ഷേപ	-10.2713
▁വർഷങ്ങൾക്കു	-10.2714
▁വികസിപ്പിച്ചെടു	-10.2714
ാമെന്ന	-10.2714
ജ്യോതിശാസ്ത്രജ്ഞ	-10.2717
▁ബദ	-10.2718
▁മാതാവ്	-10.272
▁വർഷങ്ങളിൽ	-10.2721
▁പ്രശസ്തനായ	-10.2721
▁ഒളി	-10.2723
മുണ്ടെന്ന	-10.2726
െതിരെ	-10.2729
▁17-	-10.273
▁പേരിലും	-10.273
പൂർവ്വ	-10.2731
▁ഏജൻസി	-10.2733
▁ഉപേക്ഷിക്ക	-10.2733
▁പരിശോധന	-10.2734
▁വർഷത്തിൽ	-10.2736
ഞ്ചു	-10.2742
ടങ്ങ	-10.2743
▁കള്ള	-10.2746
▁പരാജയപ്പെട്ട	-10.2746
മുട്ട	-10.2746
▁വ്യക്തമാക്ക	-10.2752
കർമ്മ	-10.2753
ചന	-10.2758
▁കുടു	-10.276
▁ഭാഗത്തു	-10.2761
▁ശിവൻ	-10.2763
ഘടക	-10.2763
▁കയറി	-10.2764
സഹായ	-10.2766
▁ശ്ര	-10.2771
ുകൾക്കും	-10.2776
വേദി	-10.2779
▁മതം	-10.2781
}}	-10.2781
▁കണക്കാക്കിയ	-10.2785
ഡ്യൂ	-10.2788
▁ബില്ല	-10.2788
▁വ്യാപിച്ച	-10.2789
▁വെൺ	-10.2789
ക്കളും	-10.2792
▁വലയ	-10.2792
യില്ലാത്ത	-10.2793
▁ദ്രാവിഡ	-10.2803
▁ഉപയോഗം	-10.2825
മല്ലാത്ത	-10.2827
▁പ്രദർശിപ്പിച്ച	-10.2828
citation	-10.2828
▁മുപ്പത	-10.2829
െക്കുറിച്ച	-10.2829
▁ഗണ്യമായ	-10.2831
▁ബഹുമാന	-10.2834
▁എട്ട്	-10.2837
▁മൂർ	-10.2838
▁ഊര	-10.2839
▁കാള	-10.2841
ത്തോടുകൂടി	-10.2844
▁മിർ	-10.285
▁കെട്ട	-10.285
▁ജനവിഭാഗ	-10.285
പ്രസിദ്ധ	-10.2853
ഓളം	-10.2855
▁വെളി	-10.2857
▁ഇന്റർനെറ്റ്	-10.2858
.8	-10.286
ോടുകൂടി	-10.2861
▁ചോദ്യം	-10.2861
if	-10.2861
▁പിന്തുടരുന്ന	-10.2861
▁വെളിപ്പെടുത്ത	-10.2865
രുടെയും	-10.2869
▁ഈന്തപ്പന	-10.2876
▁അധ്യക്ഷ	-10.2876
▁ദൂരെ	-10.2878
▁1981	-10.2879
ൊടു	-10.2881
▁പ്രവൃത്തി	-10.2887
കളുമാണ്	-10.2888
▁വിപണി	-10.2891
നാശ	-10.2891
ഫ്റ്റ്	-10.2893
▁33	-10.2898
▁പ്രീ	-10.2899
▁രംഗത്തെ	-10.2901
സംസ്കാര	-10.2902
ുകളായി	-10.2905
▁ചെമ്പൻ	-10.2913
തല്ല	-10.2915
▁ഡൈ	-10.2918
ബ്രി	-10.2923
കപ്പ	-10.2923
ങ്ങുന്ന	-10.2924
ാക്ഷര	-10.2924
▁കപൂർത്തല	-10.2924
▁ടാഗോർ	-10.2924
▁കരസ്ഥമാക്കി	-10.2924
▁വടക്കുകിഴക്ക	-10.2925
▁സൂചന	-10.2925
▁ഭസ്മ	-10.2925
ജാതി	-10.2927
▁നഗരമാണ്	-10.2933
▁സ്വർഗ്ഗ	-10.2936
▁നിറത്തിലുള്ള	-10.2939
▁സഞ്ചരിക്ക	-10.2941
▁മൈല	-10.2946
▁പാർക്ക്	-10.2948
ഖ്യ	-10.2948
▁നിർത്ത	-10.2953
ant	-10.2957
▁പതിനാറാ	-10.2959
▁കൃത്യമായി	-10.2961
▁ശാന്ത	-10.2963
end	-10.2966
▁ആളുകള	-10.297
▁ജവഹർലാൽ	-10.2973
▁മംഗോളിയ	-10.2973
▁സുന്നഹദോസ	-10.2973
▁ഹ്രസ്വ	-10.2973
▁ഘടിപ്പിച്ച	-10.2973
▁സ്പീഷീസ	-10.2973
▁വർദ്ധിച്ച	-10.2973
▁ആസ്പദമാക്കി	-10.2973
▁ഖുർആന	-10.2974
▁പുത്രൻ	-10.2976
▁1969	-10.2977
▁1962	-10.2977
ൂന്നി	-10.2982
▁പൊട്ടി	-10.2983
ന്നൂർ	-10.2984
▁as	-10.2986
▁മാംസ	-10.2993
സിദ്ധാന്ത	-10.3
▁നിയന്ത്രണത്തില	-10.3002
▁കീഴടക്കി	-10.3007
▁ആവശ്യപ്പെട്ടു	-10.3007
▁കാരി	-10.3013
പട	-10.302
▁തുറന്നു	-10.302
ഭംഗ	-10.302
▁കൗൺസില	-10.3022
▁നവോത്ഥാന	-10.3022
▁മറുപടി	-10.3022
▁ദശലക്ഷം	-10.3022
▁വിവർത്തനം	-10.3022
▁നിയമസഭാ	-10.3023
▁പിറന്ന	-10.3023
▁കിഴക്കോട്ട	-10.3023
▁ചീഫ്	-10.3025
ഒരു	-10.3027
▁തീവ്രവാദ	-10.303
ഹർ	-10.303
കേന്ദ്രം	-10.3032
▁ഫ്രാൻസ്	-10.3033
▁കപ്പ	-10.3036
▁കൊടുക്കുന്ന	-10.3038
▁ഗെ	-10.3047
വുമുണ്ട്	-10.305
▁ചിത്രീകരിക്ക	-10.3051
▁പിണ്ഡ	-10.3054
കൊള്ളുന്ന	-10.3056
▁കഴിച്ചു	-10.306
ഗണിത	-10.3064
▁നായിക	-10.3066
://	-10.3071
▁ഹജ്ജ്	-10.3071
▁സ്പേസ്	-10.3071
▁ഈറിസ	-10.3072
▁ടീം	-10.3074
▁1978	-10.3077
ാമെന്ന്	-10.3079
▁ഗ്രന്ഥങ്ങൾ	-10.3081
▁ബർ	-10.3082
▁ഉപയോഗിച്ചാണ്	-10.3091
▁സന്യാസി	-10.3092
സ്ഥിതി	-10.3095
ാണെങ്കിലും	-10.3096
▁അലങ്കാര	-10.3096
വരായിരുന്നു	-10.3097
▁അടയാള	-10.3097
▁മുഴ	-10.3098
ായതിനാൽ	-10.3103
▁നൽകുന്നത്	-10.3103
▁പങ്കാളി	-10.3103
ന്ത്യ	-10.3107
▁സിസ്റ്റം	-10.3107
▁ജീവിക്കുന്ന	-10.3108
േർഡ്	-10.3114
ിക്കേണ്ട	-10.3115
▁പർ	-10.3116
▁ഗതി	-10.3118
യെന്ന്	-10.3119
▁വ്യതിയാന	-10.312
▁ശവകുടീര	-10.312
▁നമ്പർ	-10.312
▁ഭഗവാൻ	-10.3121
ക്രിയ	-10.3123
വാഴ്ച	-10.3127
▁മാള	-10.3127
▁കനാൽ	-10.3132
▁അവതാര	-10.3134
നൂറ	-10.3135
▁നഗരസഭ	-10.3135
▁ഉദാഹരണത്തിന്	-10.3141
▁രൂപംകൊണ്ട	-10.3142
▁An	-10.3144
പത്തി	-10.3144
▁സവിശേഷ	-10.3145
▁മകര	-10.3147
ൻമാർ	-10.3153
▁ശ്രമിക്കുന്ന	-10.3154
കണ്ണൻ	-10.3158
ദീപ	-10.3161
▁റൺസ്	-10.3164
▁പോവ	-10.3166
▁ഗോപി	-10.3166
േതര	-10.3167
▁മേഖലകളില	-10.3168
▁ഗവൺമെന്റ്	-10.317
▁ചന്ത	-10.3175
▁വില്യം	-10.3178
▁മുന്നണി	-10.3185
▁പൊക്ക	-10.3187
ഹേ	-10.3189
ത്തെത്തുടർന്ന്	-10.3193
ദ്വീപ	-10.3195
▁ആദിവാസി	-10.3197
നിരീക്ഷണ	-10.32
▁സ്വാധീനിച്ച	-10.3203
കൊണ്ടിരുന്ന	-10.3206
ari	-10.3208
▁പ്രശ്നങ്ങൾ	-10.3209
▁വേഗത്തി	-10.3216
ത്തിലെത്തി	-10.3216
sa	-10.3217
▁കഴുത്ത	-10.3218
▁ദക്ഷിണേന്ത്യ	-10.3219
▁കൊളംബിയ	-10.3219
▁നിലകൊള്ളുന്ന	-10.3223
വർക്കും	-10.3223
▁2018	-10.3224
▁സമ്പ്രദായം	-10.3227
ിറക്ക	-10.3229
യൊക്കെ	-10.323
▁എഡ്	-10.3232
▁കത്തി	-10.3244
ide	-10.3248
G	-10.325
▁ഏറ്റെടുത്തു	-10.3251
െടുക്കാൻ	-10.3253
▁യൂണിയന	-10.3254
▁സാക്ഷി	-10.3259
ല്ലാത്ത	-10.326
യ്ക്കായി	-10.3262
▁ബാബിലോണിയ	-10.3263
▁ഐതിഹ്യം	-10.3268
കെട്ടി	-10.3269
▁ആരോപണ	-10.3269
▁നന്നാക്ക	-10.327
▁നാണയ	-10.327
▁ഇവിടം	-10.327
3-	-10.3272
▁ആറാം	-10.3274
▁സൌ	-10.3276
▁തവിട്ടു	-10.3277
തേയില	-10.3278
▁സമീപത്ത	-10.328
പാത്ര	-10.3283
▁തട്ടി	-10.3284
▁വെങ്കട	-10.3285
▁വാലി	-10.3286
co	-10.3288
▁പത്ത്	-10.329
▁പ്രതിമ	-10.3294
▁ചീ	-10.3297
K	-10.3301
▁ശരീരം	-10.3302
▁കൊണ്ടും	-10.3304
▁ആരംഭിക്കുന്നത്	-10.3312
▁കാന	-10.3313
▁കൂടുതലും	-10.3314
▁ധൂമകേതു	-10.3317
▁ദ്വീപുകൾ	-10.3319
▁താത്പര്യ	-10.3319
▁റബ്ബർ	-10.332
▁നിരന്തര	-10.332
▁സർവീസ്	-10.3321
പണി	-10.3322
▁സുവർണ്ണ	-10.3326
▁സജീവമായി	-10.3329
▁ജനതാ	-10.3334
▁അടുക്ക	-10.3339
▁ഹൗസ്	-10.3341
▁ഗാന്ധിജി	-10.3341
ുറ്റൻ	-10.3343
▁കലാകാര	-10.3344
ത്തോടെയാണ്	-10.3346
യോളം	-10.3366
ിനോടു	-10.3366
▁സ്റ്റുഡിയോ	-10.337
▁ഇതിഹാസ	-10.337
▁കണ്ടുപിടിത്ത	-10.337
▁കുരങ്ങു	-10.337
▁കണ്ടുപിടിക്ക	-10.337
▁ദർപ്പണ	-10.337
▁സിന്ധു	-10.337
▁ഇലക്ട്രോണിക്	-10.3371
▁കുറവാണ്	-10.3372
▁പരിമിത	-10.3372
▁വധിച്ച	-10.3374
▁1961	-10.3374
നേയും	-10.3374
▁സംസ്കാരം	-10.3375
▁പതിനെട്ടാം	-10.3375
▁വീതം	-10.3375
ങ്ങളെല്ലാം	-10.3375
ത്തിലോ	-10.3375
▁മണ്ഡപ	-10.3378
▁1930	-10.3378
▁ഭാഷകൾ	-10.3381
▁ഞാറ	-10.3384
▁ഗ്രന്ഥം	-10.3384
ഫീ	-10.3388
▁സംസ്ഥാനത്തിന്റെ	-10.3391
▁കൊടു	-10.3393
▁ധനു	-10.3399
▁ഹെർ	-10.3399
ശിവ	-10.3402
▁രാജ്യങ്ങളിലും	-10.3402
ശരീര	-10.3404
▁ഏറ	-10.3408
▁ഇണ	-10.3412
▁ധാരണ	-10.3412
▁പലരും	-10.3416
▁ലും	-10.3417
പ്രഖ്യാപന	-10.3421
▁പോർച്ചുഗീസ്	-10.3421
▁ശങ്കർ	-10.3421
▁ഗരുഡ	-10.3421
▁കണ്ടുവരുന്നു	-10.3422
റിന്	-10.3423
▁വേൾഡ്	-10.3424
▁പിലി	-10.3424
ുകയാണെങ്കിൽ	-10.3425
▁അറിയിച്ചു	-10.3425
▁ആനന്ദ	-10.3433
▁കാലത്താണ്	-10.3434
ാകുകയും	-10.3442
▁വിശ്വസിക്കപ്പെട	-10.3447
▁നാൽ	-10.3447
▁ജന്തു	-10.3453
▁പ്രമാണ	-10.3454
▁കിളി	-10.3454
▁രാമൻ	-10.3457
▁ആണവ	-10.3458
ദിവസ	-10.346
▁കാലത്തെ	-10.3463
▁പ്രയോജന	-10.3465
▁തങ്ക	-10.3468
മരുന്ന	-10.3469
▁രാജ്യത്ത്	-10.347
പല	-10.347
▁രാമായണ	-10.347
ട്രീ	-10.3471
▁ഹൈക്കോടതി	-10.3472
▁സങ്കേത	-10.3472
▁നിരൂപക	-10.3472
▁മൈതാന	-10.3473
▁നാട്ടിലെ	-10.3473
മഠ	-10.3473
വട	-10.3474
▁പെട്ടെന്ന്	-10.3474
▁ലഭ്യമ	-10.3476
▁രക്ഷിക്ക	-10.348
▁ടാറ്റ	-10.3481
▁നാലാമത്തെ	-10.3481
▁by	-10.3484
ിനടുത്തുള്ള	-10.3486
▁മാസ്റ്റർ	-10.3486
▁കിഴക്കേ	-10.3489
▁ഓക്സ	-10.3489
▁മാസത്തിൽ	-10.3492
▁പഞ്ചാബിലെ	-10.3497
▁ദീർഘകാല	-10.3498
പുല	-10.35
▁രാജവംശം	-10.3503
▁പ്രവാചകൻ	-10.3508
▁സംവിധായകൻ	-10.351
ജ്യ	-10.351
▁നേടിയത്	-10.3513
ട്യൂ	-10.3517
land	-10.3523
▁ഹൈസ്കൂൾ	-10.3524
▁ബ്ലോക്ക	-10.3525
▁നിയമങ്ങൾ	-10.3526
▁യുക്തി	-10.3526
ക്കുറിച്ചുള്ള	-10.3527
▁മീഡിയ	-10.3527
▁1945	-10.3528
▁ജയ്	-10.3531
▁സ്വർണ	-10.3531
ത്തൂ	-10.3531
ാകൃതി	-10.3533
▁ഡൊ	-10.3545
▁ഗ്രാമപഞ്ചായത്ത്	-10.3546
▁അടുത്തുള്ള	-10.3548
യെടുത്ത	-10.3551
▁താഴ്	-10.3551
മാസത്തിലെ	-10.3552
ver	-10.3552
▁പുന്ന	-10.3554
ാചാര	-10.356
▁ക്വ	-10.3562
മേറ്റ	-10.3563
ങ്ങനെ	-10.3564
തയുള്ള	-10.3564
▁ദൈവത്തിന്റെ	-10.3565
പേർ	-10.3566
യെപ്പറ്റി	-10.357
▁കാളി	-10.3573
ായിരിക്കണം	-10.3574
▁with	-10.3575
▁താത്കാലിക	-10.3575
▁ഉപനിഷത്ത	-10.3575
▁മാർക്വേസ	-10.3575
▁വങ്കാരി	-10.3575
▁പ്രബോധന	-10.3575
▁യോഗ്യത	-10.3575
േയ്ക്കു	-10.3577
▁സെക്കന്റ	-10.3577
▁ശവ	-10.3578
▁കഥകളി	-10.3578
▁റിലീസ	-10.3579
സാർ	-10.358
500	-10.3582
മാത്രം	-10.3585
▁വയനാട്	-10.3586
▁ദർശനം	-10.3586
▁ഊർജ്ജം	-10.3588
▁പത്രാധിപ	-10.3593
ist	-10.3595
▁പ്രശസ്തി	-10.3595
പ്പെടും	-10.3595
ുമ്പോഴും	-10.3597
▁വിലക്ക	-10.3597
▁പ്രവേശനം	-10.3597
▁പൂർവ്വ	-10.3611
▁ആധിപത്യം	-10.3619
▁തുടങ്ങിയവർ	-10.3619
ട്ടൺ	-10.3619
▁ഇക്കാല	-10.362
▁പദ്ധതിയുടെ	-10.3625
▁നേരിട	-10.3626
▁ഇത്തരത്തിൽ	-10.3627
▁ഇന്ധന	-10.3627
▁ഹോട്ടൽ	-10.3627
▁തിരുനാൾ	-10.3628
▁യുവജന	-10.3631
▁പരാജയപ്പെട്ടു	-10.3633
▁ലൂയി	-10.3635
ies	-10.3636
▁ഇടപാട	-10.3637
ുകളിലായി	-10.364
▁മാധ്യമം	-10.3648
ത്തെയാണ്	-10.3653
ബന്ധം	-10.3655
▁ഉണ്ടാകും	-10.366
പ്പെട്ടിട്ടുള്ള	-10.3661
▁മാവ്	-10.3665
▁ആചാര്യ	-10.3665
ത്തിലധിക	-10.3666
▁ബന്ധിപ്പിക്ക	-10.367
▁കർണ്ണാടക	-10.3672
ുകയാണുണ്ടായത്	-10.3679
▁കണക്കെടുപ്പ	-10.3679
ഹൈ	-10.3679
▁പ്രചോദന	-10.3679
▁ഇതുവരെ	-10.3679
▁പത്നി	-10.368
▁കുംഭ	-10.368
▁ഉദി	-10.3681
പഞ്ച	-10.3682
▁ഇരുപത്തി	-10.3683
▁1966	-10.3684
▁പതന	-10.3684
▁മനോഹരമായ	-10.3687
▁ഒമ്പത	-10.3687
കുള	-10.3689
▁തുടങ്ങിയവയാണ്	-10.369
▁ആദിമ	-10.369
▁വേണ്ടിയുള്ള	-10.369
▁അഭിപ്രായപ്പെട്ട	-10.369
▁അതോടെ	-10.3692
ാണിവ	-10.3693
▁നീങ്ങി	-10.3695
▁സാക്ഷരതാ	-10.3698
▁വാരിക	-10.37
▁മസ്	-10.3701
▁ദിവസങ്ങൾ	-10.3704
▁അരുവി	-10.3708
▁18-	-10.3709
▁ഭവന	-10.3711
സംഹിത	-10.3713
ക്കാവുന്ന	-10.3714
▁സിദ്ധ	-10.3716
▁ഘടകങ്ങൾ	-10.3718
▁മരണമടഞ്ഞു	-10.3722
▁ടിപ്പു	-10.3722
മധ്യ	-10.3722
pur	-10.3729
▁ജയിച്ച	-10.3731
▁ഒളിമ്പിക്	-10.3731
▁കൊലപാതക	-10.3731
▁ആകർഷണ	-10.3731
▁നമ്മുടെ	-10.3731
▁ശ്രേണി	-10.3731
▁ഏഴിലം	-10.3731
വൽക്കരണ	-10.3731
ഗിരിയൻ	-10.3733
▁നേരിട്ടു	-10.3734
▁ജലാശയ	-10.3734
▁ദിനം	-10.3736
▁പലതും	-10.3736
▁സംവിധാനത്തിൽ	-10.3737
▁ദെ	-10.3741
▁പോര	-10.3742
യ്സ്	-10.3746
▁പ്രബല	-10.3746
mon	-10.3746
▁അറിയപ്പെട്ടിര	-10.3748
▁പകര	-10.375
ട്രാ	-10.3752
▁സബ്	-10.3754
▁ഇൻഫ	-10.3755
▁തുടർന്നുള്ള	-10.3756
▁സാന്നിദ്ധ്യ	-10.3756
▁150	-10.3757
▁വിദ്യാർത്ഥികൾ	-10.3758
▁അവരിൽ	-10.3762
▁ഉൾക്കൊള്ള	-10.3763
ക്കുന്നതിന്	-10.3764
▁ദീ	-10.3764
▁പ്രിയ	-10.3767
▁പൊതുജന	-10.3768
▁കനത്ത	-10.3768
▁നടന	-10.3772
▁ക്ഷേത്രങ്ങൾ	-10.3773
▁ക്യാ	-10.3774
ുവാനായി	-10.3774
▁പിൽക്കാല	-10.3775
▁ധരിക്ക	-10.3776
ിതനായ	-10.3778
പ്പാറ	-10.3783
▁യഥാക്രമം	-10.3783
▁വിമോചന	-10.3783
▁കഠിന	-10.3784
▁ഗവർണർ	-10.3784
▁തണുപ്പ	-10.3784
▁ബാറ്റിസ്റ്റ	-10.3784
▁വിനോദസഞ്ചാര	-10.3784
▁സംഭവിക്ക	-10.3784
▁ശുദ്ധജല	-10.3785
▁ഉദ്ഘാടനം	-10.3785
▁എതിരാളി	-10.3786
▁ക്വാ	-10.3786
▁ഗായക	-10.3788
▁അസ്ഥി	-10.3789
▁നാരക	-10.3789
▁രൂപാന്തര	-10.3791
▁ടെലി	-10.3791
200	-10.3793
▁ഭൂരിപക്ഷം	-10.3794
യുണ്ടായ	-10.3806
▁ക്രിസ്തുവ	-10.3813
▁ഇവർക്ക്	-10.3814
▁രാം	-10.3816
▁രാശി	-10.3818
നായക	-10.3822
▁വംശജര	-10.3824
ov	-10.3827
യാണെന്നും	-10.3833
▁പ്രായോഗിക	-10.3836
▁മേധാവി	-10.3836
▁ഗോപാലൻ	-10.3836
▁ദേശാടന	-10.3836
▁വിദ്യാർഥി	-10.3836
▁കടന്ന്	-10.3837
▁അളവ്	-10.3837
▁നടത്തിയിരുന്ന	-10.3838
യുണ്ടായിരുന്ന	-10.3841
▁എന്നാണ	-10.3851
പാർ	-10.3853
▁കണക്കാക്കുന്നത്	-10.3861
ങ്ങാട്	-10.3865
ഫലമായി	-10.3868
മാക്കുന്നു	-10.3871
ക്യു	-10.3872
▁പോരാട	-10.3874
▁കരുതപ്പെടുന്ന	-10.3883
ുകയില്ല	-10.3886
▁രൂപപ്പെട്ട	-10.3887
▁ലഹള	-10.389
▁പരിഗണിച്ച	-10.389
▁ഒരിനം	-10.389
▁ശാസ്താ	-10.389
▁ഇടപെട	-10.389
▁കീഴടങ്ങ	-10.389
▁ഇടതുപക്ഷ	-10.3891
▁അയക്ക	-10.3893
▁ഐക്യനാടുകളിലെ	-10.3898
▁വെച്ചു	-10.3899
▁1857	-10.39
ോപകരണ	-10.3901
▁ശേഖരിച്ച	-10.3902
▁സെമി	-10.3905
▁മഹാദേവ	-10.3905
വിഗ്രഹ	-10.3908
ാർത്ഥം	-10.3909
▁ചാനല	-10.3911
▁അബ്ദു	-10.3911
▁മാലി	-10.3914
▁ആറാമ	-10.3917
ിനുള്ളിൽ	-10.3919
ദൂത	-10.3928
റീ	-10.3928
േഴ്സ	-10.3929
▁പരമ്പരയിലെ	-10.3931
▁നേടുന്ന	-10.3943
▁ഗവർണറ	-10.3943
▁വിജയിച്ചു	-10.3945
▁Th	-10.3946
▁ചന്ദനം	-10.3949
▁ടെസ്റ്റ	-10.395
▁റോക്കറ്റ	-10.3951
പാഠ	-10.3953
പടി	-10.3958
ിനടുത്ത	-10.396
▁സാധിച്ചു	-10.3966
▁പര്യടന	-10.3968
ive	-10.3969
കളെല്ലാം	-10.3972
▁ക്ലോ	-10.3972
ാഘോഷ	-10.3972
▁പഠിക്കാൻ	-10.3975
▁രചിക്കപ്പെട്ട	-10.3977
കാട്ടി	-10.3978
▁വാത	-10.398
മെൻ	-10.3983
റാവു	-10.3988
▁ബോട്ട	-10.3992
യുമായുള്ള	-10.3992
▁റായ്	-10.3992
ുമൊക്കെ	-10.3993
▁താൽപര്യ	-10.3997
▁ഹൈസ്കൂള	-10.3997
▁യഥാർഥ	-10.3997
സമുച്ചയ	-10.3997
▁ഞാവൽ	-10.3998
▁ബിഷപ്പ	-10.3999
▁500	-10.4
▁ഉൾപ്പെടുത്തി	-10.4001
വൈകല്യ	-10.4001
▁1951	-10.4003
സമയത്ത്	-10.4004
▁അബ്ദുൾ	-10.4004
▁പുരസ്	-10.4007
▁കനി	-10.4007
▁ചെറുകഥ	-10.4007
പ്പേര	-10.401
▁നീലി	-10.401
▁ഭൂപ്രദേശ	-10.4022
▁കൃഷ്ണൻ	-10.4024
▁ഭരണകൂടം	-10.4025
▁കിങ്	-10.4028
▁കഥകൾ	-10.4028
ara	-10.4033
തിരു	-10.4033
▁അമിത	-10.4034
▁വരണ്ട	-10.4038
▁അധികാരത്തിൽ	-10.404
കോമാളി	-10.4043
ത്തുനിന്ന	-10.4046
▁പുല	-10.4048
▁കണക്കുകൾ	-10.405
▁യാഥാസ്ഥിതിക	-10.4051
▁ജർമ്മൻ	-10.4051
പ്പിക്കുകയും	-10.4052
▁നക്ഷത്രരാശി	-10.4052
▁രംഗത്തു	-10.406
ng	-10.406
▁നിർണയിക്ക	-10.4061
നീഷ്യ	-10.4062
യെന്നും	-10.4065
▁മക്കൾ	-10.4067
▁പഞ്ചായത്തിന്റെ	-10.4073
ാണോ	-10.4076
മാവുകയും	-10.4077
ക്കുന്നതിനു	-10.4078
▁സമ്മേളന	-10.4078
▁തേര	-10.4083
▁ഇംഗ്ലീഷിൽ	-10.4088
▁മൈസൂർ	-10.4088
▁പദ്മ	-10.4092
മ്പിൾ	-10.4096
▁മനുഷ്യൻ	-10.4098
പുരാണ	-10.4102
▁ഒരിക്കലും	-10.4105
▁കാർബൺ	-10.4105
▁ഓട്ടൊമ	-10.4105
ാരാധന	-10.4106
ാത്മ	-10.4108
▁നഗരങ്ങൾ	-10.4114
▁പിടിച്ചെടുത്ത	-10.4117
രുടേയും	-10.4118
▁അംഗമായി	-10.412
▁സ്വന്തമായി	-10.4122
▁ജനവാസ	-10.4122
▁ഡച്ച്	-10.4125
▁എന്നിവയ്ക്ക	-10.4129
▁തൊഴില	-10.4129
▁തൻറെ	-10.4129
യനുസരിച്ച്	-10.413
one	-10.4133
യിലേയ്ക്കു	-10.4137
▁സച്ചിന	-10.4137
▁പ്രദേശത്തു	-10.414
▁കിട്ടുന്ന	-10.4141
▁അർഥ	-10.4142
▁അക്രമ	-10.4145
▁ചിത്രകാര	-10.4148
▁സന്ദർശന	-10.4149
V	-10.415
പരിപാടി	-10.4151
ബ്രഹ്മ	-10.4151
▁കൊന്ന	-10.4153
ിലേയ്ക്ക	-10.4154
ഭഗവാന	-10.4158
സമര	-10.4159
▁ഭ്രമണ	-10.416
▁ഇറ്റാലിയൻ	-10.416
▁അയാളുടെ	-10.416
▁കടയ്ക്കൽ	-10.416
ക്കെതിരേ	-10.416
▁ഇടുക്കി	-10.4161
എന്നാൽ	-10.4162
▁അമൃത	-10.4163
81	-10.4167
▁തലശ്ശേരി	-10.4167
ibn	-10.4169
▁എയ്	-10.4169
▁ഇത്ര	-10.4173
▁ഉല	-10.4175
ജീവിതം	-10.4179
▁ഇവയാണ്	-10.4185
▁ഭരിച്ചിരുന്ന	-10.4188
▁തമിഴ്നാട്	-10.4189
▁കൊണ്ടുള്ള	-10.4195
മൂന്ന	-10.4202
ടെക്	-10.4203
സാമ്രാജ്യ	-10.4206
മേനോൻ	-10.4206
വിദ്യാഭ്യാസ	-10.4206
▁സഹായിച്ച	-10.4207
ിനടുത്ത്	-10.4208
കുട	-10.4208
▁നൽകാൻ	-10.4208
▁ചിത്രമാണ്	-10.4211
▁സൈറ്റ	-10.4212
▁ഇന്റർനാഷണൽ	-10.4215
▁പരമാവധി	-10.4215
▁താൻസാനിയ	-10.4215
▁തൊട്ടടുത്ത	-10.4216
നാഥൻ	-10.4217
ഭ്യാസ	-10.422
▁തിരിഞ്ഞ	-10.422
▁അറസ്റ്റ്	-10.4221
ഗര	-10.4222
▁യക്ഷി	-10.4222
▁കലാലയ	-10.4223
▁അനുഷ്ഠാന	-10.4224
സംബന്ധമായ	-10.4229
▁വലിപ്പമുള്ള	-10.423
▁തരംഗ	-10.423
▁പാളി	-10.4232
▁ഗ്രൂപ്പ്	-10.4235
▁പുറത്തിറങ്ങി	-10.4235
▁ഗുരുവ	-10.4235
ാമത്	-10.4239
▁തിരിക്ക	-10.424
കാവ്യ	-10.4241
▁അടക്കം	-10.4246
▁സമ്മേളനത്തിൽ	-10.4249
കൾക്കിടയിൽ	-10.425
▁പടിഞ്ഞാറ	-10.4253
▁പിണ	-10.4257
നില്ക്കുന്ന	-10.4258
▁പ്രതിപാദിക്ക	-10.426
▁മനുഷ്യന്റെ	-10.4262
▁രോഗി	-10.4263
മാർഗ്ഗം	-10.4266
ുന്നതിനെ	-10.4266
▁ഘന	-10.4268
പ്പാത്തി	-10.4269
▁St	-10.427
▁സ്മരണ	-10.427
▁അളവിൽ	-10.427
▁സഹായി	-10.4271
▁തെളിയിച്ച	-10.4274
▁1954	-10.4275
▁എന്നിവയെല്ലാം	-10.4282
ീന്ദ്ര	-10.4285
പ്പോഴും	-10.4287
▁ദ്വീപുകള	-10.4296
മഞ്ഞൾ	-10.4298
ൊപ്പം	-10.4301
▁ജയിലില	-10.4301
▁പഠിപ്പിക്കുന്നു	-10.4301
▁ഭാഗങ്ങളില	-10.4304
ങ്ങളിലേക്കു	-10.4309
▁2004-	-10.4314
age	-10.4319
ക്കുരു	-10.4319
ച്ചേര	-10.4319
പുരുഷ	-10.432
ാരംഭ	-10.4321
left	-10.4326
▁മുഴുവനും	-10.4326
▁ശൃംഖല	-10.4326
പാൽ	-10.4327
▁1952	-10.433
▁ചിത്രശലഭ	-10.433
▁വിരമിച്ച	-10.433
ാറ്	-10.4335
പ്പുര	-10.4337
▁മട്ടി	-10.4337
യ്ക്കാൻ	-10.4337
▁പ്രവാഹ	-10.434
up	-10.4342
▁കുറിക്ക	-10.4357
▁നീർക്ക	-10.4358
▁ബ്രിട്ടീഷുകാര	-10.436
▁പ്രദേശമാണ്	-10.436
ദശ	-10.4361
▁രോഗങ്ങൾ	-10.4362
▁തയ്യാറ	-10.4365
സമ്മ	-10.4374
ക്കാതെ	-10.4378
ക്രോ	-10.438
▁ഋഗ്വേദ	-10.4381
▁അഭിഭാഷക	-10.4382
▁ഡയറക്ടർ	-10.4382
▁ട്രോഫി	-10.4382
▁വ്യാകരണ	-10.4383
▁വിധാനം	-10.4384
▁1983	-10.4386
▁ഒട്ടക	-10.4386
കൊടുത്ത	-10.4386
▁വെട്ടി	-10.4387
മണ്ഡലം	-10.4388
ബിന്ദു	-10.4388
▁1955	-10.4388
ell	-10.4389
du	-10.439
▁പരിഹാര	-10.4391
സമവാക്യ	-10.4392
▁പിന്നിൽ	-10.4393
▁സർവകലാശാലയിൽ	-10.4402
▁കല്യാണ	-10.4404
▁നായ്ക്ക	-10.4405
▁സുരക്ഷാ	-10.4405
▁പ്രദേശത്തിന്റെ	-10.4405
▁ദേ	-10.4407
▁Pa	-10.4407
ത്തിനകത്ത	-10.4415
ഗീത	-10.442
▁വിക്കി	-10.4425
ിറങ്ങിയ	-10.4426
പുഴ	-10.4427
തുള്ളൻ	-10.443
▁അർജന്റീന	-10.4438
▁തീർത്ഥാടക	-10.4438
▁പ്രോത്സാഹിപ്പി	-10.4438
▁തൃശൂർ	-10.4438
▁ആഹ്വാന	-10.4438
▁വിചാരണ	-10.4438
ശ്രദ്ധ	-10.4438
▁ആശ്രമ	-10.4438
▁പ്രജനന	-10.4438
▁പീഠഭൂമി	-10.4438
പ്പാട്	-10.4441
▁കൗണ്ടി	-10.4441
▁ചാവെസ	-10.4442
▁13-	-10.4444
▁1965	-10.4445
▁നേതാക്കൾ	-10.4446
▁പ്രചാരം	-10.4453
▁ശില	-10.4462
▁അതിര	-10.4469
▁he	-10.4472
▁നടപടികൾ	-10.4475
▁ഇറങ്ങി	-10.4478
▁ഭാരതത്തിലെ	-10.4482
▁വികാര	-10.4483
▁പീഠ	-10.4486
ലുകളും	-10.4488
യുമുണ്ട്	-10.4489
▁താരതമ്യ	-10.449
▁അമർ	-10.4491
▁വ്യക്തമാക്കുന്ന	-10.4492
▁ഉപഭൂഖണ്ഡ	-10.4494
▁ആന്റണി	-10.4494
▁സീത	-10.4497
▁സ്റ്റേഷൻ	-10.4499
▁ഓപ്പറേറ്റ	-10.45
പോലും	-10.4501
▁സ്ഥലത്തു	-10.4501
▁ഉപരി	-10.4512
▁തോട	-10.4519
▁എന്നൊക്കെ	-10.4522
▁മറ്റൊര	-10.4535
സ്റ്റീ	-10.4537
▁ചിത	-10.4547
▁പൂക്കള	-10.4549
▁തെക്കുഭാഗത്ത	-10.4551
▁ഗൂഢാലോചന	-10.4551
▁നോബൽ	-10.4551
▁സഹകരിക്കുക	-10.4551
▁അദ്ധ്യക്ഷ	-10.4551
▁തീയതി	-10.4551
▁വംശനാശ	-10.4552
▁വ്യഞ്ജന	-10.4553
▁ഗൾഫ	-10.4554
കളിലേക്ക്	-10.4556
▁അംഗമായിരുന്നു	-10.4557
▁പ്രവചന	-10.4558
▁ഗൃഹ	-10.4559
▁സഞ്ചാരി	-10.456
▁കരുതിയ	-10.456
ടങ്ങുന്ന	-10.4562
▁കാമ്പ	-10.4563
da	-10.4567
ങ്ങളിലൊന്നായ	-10.4573
▁ഇവര	-10.4575
വെച്ചു	-10.4577
▁കടവ	-10.4579
▁അനാ	-10.4585
കളാൽ	-10.4588
▁ദണ്ഡ	-10.4589
രാജാക്കന്മാര	-10.4589
കളോടെ	-10.459
▁de	-10.4591
▁നിന്നുമാണ്	-10.4594
▁ജോർജ്	-10.4608
▁ഗുജറാത്തി	-10.4608
▁പ്രാവശ്യം	-10.4608
▁സർക്കാറ	-10.4609
▁ആരാധിക്ക	-10.4611
▁വായിച്ച	-10.4612
വാർഡ	-10.4614
▁പതിവ്	-10.4618
▁ഇറങ്ങിയ	-10.4622
ുമ്പോഴാണ്	-10.4623
▁വെർ	-10.4625
ജന്യ	-10.4627
വനും	-10.4627
▁പണ്ട്	-10.4631
▁മദ	-10.4638
▁ഇരുള	-10.4638
▁st	-10.4638
▁ജീവിതത്തിൽ	-10.4641
▁കീട	-10.4642
നെറ്റ്	-10.4642
ക്ടർ	-10.4648
▁മീൻ	-10.4653
▁കുട്ടികൾക്ക	-10.4654
▁ഫ്രീ	-10.4655
സൃഷ്ടി	-10.4662
കഴിഞ്ഞ	-10.4663
▁http	-10.4666
തമ്പുരാൻ	-10.4666
▁പരശുരാമ	-10.4666
▁പലതര	-10.4666
▁പ്രഭാഷണ	-10.4666
▁തകഴി	-10.4666
▁നെല്ല്	-10.4666
▁തകർന്ന	-10.4666
▁വ്യോമസേന	-10.4666
▁പ്രമേയം	-10.4673
▁കേവല	-10.4674
േറ്റർ	-10.4677
▁വയസ്സിനു	-10.4677
▁ഉൾപ്പെടെയുള്ള	-10.4679
▁നാട്ടിൽ	-10.4679
വാരി	-10.4681
കൊടുത്തു	-10.4687
▁അപൂർവ	-10.4687
ല്യൂ	-10.4692
▁സംസാരിക്ക	-10.4694
▁കറുപ്പ	-10.4694
▁ഫലക	-10.4699
പതിനായിര	-10.4701
▁അങ്കോ	-10.4706
▁ആഴ്ച	-10.4708
ong	-10.4711
ത്തിലേയ്ക്ക്	-10.4713
സ്ഥാപ	-10.4715
ിരുന്നതായി	-10.4718
▁ഭാഷയുടെ	-10.4718
▁സംബന്ധിച്ച്	-10.4721
▁തീർത്ഥാടന	-10.4723
▁നിഗമന	-10.4723
▁വിസ്തീർണ്ണം	-10.4723
▁ഉൾക്കടല	-10.4723
▁പുരാവസ്തു	-10.4725
▁ദിനപത്ര	-10.4725
▁ഡോക്ടർ	-10.4725
▁പത്രപ്രവർത്തക	-10.4726
▁പ്രദക്ഷിണ	-10.4727
▁തിരിച്ചറിഞ്ഞ	-10.4727
▁മറ്റൊന്ന	-10.4737
▁നടത്തിയിരുന്നു	-10.4754
ക്കഴിഞ്ഞ	-10.4758
▁അന്ധ	-10.476
▁ചാവേസ്	-10.476
▁കഴിവുള്ള	-10.4765
▁ഖാന്റെ	-10.4768
ിക്കുവാൻ	-10.4772
ില്ലെന്ന്	-10.4774
ity	-10.4774
▁ഗ്രാമമാണ്	-10.4775
▁തടവി	-10.4776
▁ജ്യോതിഷ	-10.4777
▁മതപരമായ	-10.4778
സമ്പ്രദായ	-10.4779
വൃക്ഷ	-10.4779
▁ഓർത്തഡോക്സ്	-10.4782
▁ഗവേഷക	-10.4782
▁ഡിസംബറിൽ	-10.4782
▁ദുരന്ത	-10.4782
▁വിശാലമായ	-10.4784
go	-10.4785
▁വിധത്തിൽ	-10.4785
▁കമ്പിളി	-10.4785
▁ശേഷ	-10.4787
▁ദിവ്യ	-10.4788
▁വേർതിരിക്ക	-10.4793
bo	-10.4796
താണു	-10.4801
ിലൊരാളായ	-10.4809
യോൺ	-10.4813
▁വ്യാപിച്ചു	-10.4822
ബർഗ്	-10.4829
▁മഞ്ജ	-10.4833
പാട്ട	-10.4834
▁ചിട്ടപ്പെടുത്ത	-10.4838
▁വേട്ട	-10.4839
▁പൂർത്തിയാക്കുവാ	-10.484
▁വളരുന്നു	-10.484
inherit	-10.484
▁തളിർനീലി	-10.484
▁ഗ്രാമീണ	-10.484
▁നജീബ	-10.484
▁India	-10.484
▁ആസാദ്	-10.4841
▁ഭിന്ന	-10.4841
▁അറിഞ്ഞ	-10.4841
ാവലി	-10.4843
▁നാടകവേദി	-10.4844
പൂർവ	-10.4844
▁1976	-10.4844
▁തകർക്ക	-10.4845
ഭുജ	-10.4845
▁മലേഷ്യ	-10.485
▁ഏഴാം	-10.485
▁2006-	-10.4856
▁വാങ്ങി	-10.4859
ts	-10.486
വുമുള്ള	-10.486
▁അയൽ	-10.4861
▁പ്രാധാന്യമുള്ള	-10.4861
▁ഇവിടെയുണ്ട്	-10.4862
▁മജ്	-10.4868
▁വാക്യ	-10.4874
▁ശിവന്റെ	-10.4876
▁ശ്രമങ്ങൾ	-10.4876
▁രാജി	-10.4879
▁ചുറ്റു	-10.488
▁ഉമ്മ	-10.4883
▁നാട്യ	-10.4883
▁ദ്വി	-10.4898
▁നിർണായക	-10.4899
▁ഛന്ദഃശാസ്ത്ര	-10.4899
▁ഫയർഫോക്സ	-10.4899
പ്രതിഷ്ഠ	-10.4899
▁മന്ത്രാലയ	-10.4901
▁1974	-10.4904
▁പരിസര	-10.4906
▁ഹയർ	-10.4913
.9	-10.4913
മൂല്യ	-10.4914
▁പേരിലുള്ള	-10.4917
▁സീറ്റ	-10.4919
▁വയസ്സു	-10.492
▁യുവതി	-10.4922
▁മനുഷ്യർ	-10.4923
▁ചലച്ചിത്രവുമായി	-10.4926
▁താവള	-10.4926
▁ഭാഗങ്ങള	-10.4932
▁സംഭവിക്കുന്ന	-10.4934
▁ഭരണകാല	-10.4936
കൊണ്ടിരുന്നു	-10.4942
ങ്ങളിലൊന്ന	-10.4944
▁ക്രിസ്ത്യാനികള	-10.4953
▁എത്തിക്ക	-10.4956
\	-10.4956
▁ജെയിംസ്	-10.4958
▁സംപ്രേഷണ	-10.4958
▁കമ്യൂണിസ്റ്റ്	-10.4958
▁ഛന്ദസ്സ	-10.4958
▁ചുവപ്പു	-10.4958
▁ഉദ്ദേശം	-10.4958
▁എത്തിച്ചേർന്ന	-10.4958
ടിയേറ്റ	-10.4959
ില്ലെങ്കിലും	-10.4961
സ്തംഭ	-10.4962
▁മനുഷ്യാവകാശ	-10.4962
▁ശനിയുടെ	-10.4963
റിയപ്പെട്ടിരുന്ന	-10.4965
▁കെട്ടു	-10.4965
▁ആധിപത്യ	-10.4966
▁ഒന്നായി	-10.4976
▁അങ്ങാടി	-10.4977
▁റോമാ	-10.4978
ൊന്നു	-10.498
യിൽനിന്നും	-10.4981
▁ഇസ്ലാമി	-10.4981
▁വാക്കുകൾ	-10.4982
▁നേടുകയും	-10.4984
മായതിനാൽ	-10.4986
▁പുറത്തേക്ക	-10.4987
▁അളവു	-10.4987
ദോഷ	-10.4988
▁നിശ്ചയിക്ക	-10.4991
▁അകത്തി	-10.4993
▁ഫിഫ	-10.4998
▁തൊട്ട	-10.5
ത്രെ	-10.5002
▁പറ്റിയ	-10.5003
ചെയ്തു	-10.5011
ലീല	-10.5011
▁പ്രതിഷ്ഠിച്ച	-10.5013
▁വിഷമ	-10.5014
▁സാന്ദ്രത	-10.5018
▁പെരി	-10.5019
പരിധി	-10.5022
ന്റേയും	-10.5025
▁പരിശോധിക്ക	-10.5026
▁മാന്	-10.5027
▁നിർവ്വഹിച്ചത്	-10.5032
ശില്പ	-10.5033
▁പാടില്ല	-10.5034
▁അഞ്ചാം	-10.5034
പ്രധാന	-10.5035
ga	-10.5039
മ്ര	-10.5043
▁പക്ഷികൾ	-10.5049
ുകളുണ്ട്	-10.5052
▁തീരുമാനിച്ച	-10.5054
▁20-	-10.5056
▁അകിൽ	-10.5064
യിലെത്തിയ	-10.5068
ത്തിനാണ്	-10.5071
▁സിനിമയിൽ	-10.5074
നിൽക്കുന്ന	-10.5075
▁രൂപീകരണ	-10.5076
▁വ്യോമ	-10.5077
▁അടിച്ചമർത്ത	-10.5077
▁മഹാസമുദ്ര	-10.5077
▁ചെയർമാന	-10.5077
▁ആലപിച്ച	-10.5078
▁ഉച്ചാരണ	-10.5078
പോന്ന	-10.5079
▁ക്രിസ്തു	-10.5079
▁വീക്ഷണ	-10.5079
▁ഗ്രീൻ	-10.5081
▁വിപ്ലവകാരി	-10.5081
▁എരുമ	-10.5085
രാഷ്ട്രീയ	-10.5085
▁ഷേർ	-10.5086
▁സമ്മേളനം	-10.5086
▁പ്രദേശങ്ങളും	-10.5089
▁പാതിരി	-10.5092
രാധ	-10.5097
▁മാക്	-10.5109
▁ഉൾക്കൊണ്ട	-10.5111
▁പ്രസിദ്ധമാണ്	-10.5112
▁സഞ്ചരിക്കുന്ന	-10.5117
▁കരുവാ	-10.512
▁രചിച്ചിട്ടുണ്ട്	-10.512
▁സൂചി	-10.5126
ard	-10.5131
▁തീരെ	-10.5134
കമ്പനി	-10.5134
സൗ	-10.5135
മാക്കുകയും	-10.5136
▁തണ്ണീർത്തട	-10.5138
▁ഗോൾഡൻ	-10.5138
▁ഭാഷയിലെ	-10.5138
ലംഘന	-10.5138
േനിയ	-10.5142
പാർട്ടി	-10.5144
ങ്ങളെക്കുറിച്ച്	-10.5145
▁കാണിക്ക	-10.5146
ുടേയും	-10.515
▁പണ്ട	-10.5151
▁ആശയങ്ങൾ	-10.5153
▁ഖുർ	-10.5155
▁രക്ഷാ	-10.5156
പ്രധാനമായ	-10.5157
▁–	-10.5161
▁നെറ്റ്	-10.5165
▁രാജ്യങ്ങളുടെ	-10.517
ke	-10.517
▁ഇരിക്ക	-10.5172
വസ്തു	-10.5172
▁1-	-10.5179
ിക്കാനും	-10.518
▁നീതി	-10.518
▁പരമ്പരയിൽ	-10.5181
▁തീരത്ത്	-10.5186
▁പൈതൃക	-10.5198
▁നാലമ്പല	-10.5198
▁അഭയം	-10.5198
▁പഴക്കമുള്ള	-10.5198
▁എല്ല	-10.5199
▁കടന്നുപോകുന്ന	-10.5199
ോദയ	-10.5199
▁ഗോതമ്പ	-10.52
▁ചെമ്മര	-10.5201
▁ഒഴുക്ക	-10.5202
▁രാജീവ്	-10.5203
▁സ്വയംഭരണ	-10.5204
▁1940	-10.5207
നാശിനി	-10.521
▁കരിയില	-10.5212
▁ടൈറ്റ	-10.5213
▁ഇദ്ദേഹത്തിന്	-10.5214
▁ഭൂമിയിലെ	-10.5215
▁വേദന	-10.5216
▁കെട്ടിയ	-10.5223
▁അടങ്ങുന്ന	-10.5224
▁കമ്മ	-10.5226
▁സ്റ്റെ	-10.5226
▁വ്യക്തിത്വ	-10.5229
▁പുറപ്പെട്ട	-10.5231
▁പൈൻ	-10.5242
▁ഇടയ്ക്ക	-10.5246
▁കൃത്യമായ	-10.5253
മഹാ	-10.5256
സംഗീതജ്ഞ	-10.5258
▁ഭൂരിഭാഗം	-10.5259
ത്തിനിടയിൽ	-10.5259
▁ഓക്ക്	-10.5259
▁1953	-10.5259
▁നേപ്പാള	-10.526
▁റോയൽ	-10.5261
വസ്തുക്കൾ	-10.5263
സൂചക	-10.5264
▁സൾഫ	-10.5264
▁മുര	-10.5266
സേവന	-10.5266
▁പ്രചാരത്തില	-10.5267
കലർന്ന	-10.5267
▁ചോള	-10.527
▁ലഭിക്കുന്നത്	-10.5274
▁ഒരുക്കിയ	-10.5274
▁പൗരസ്ത്യ	-10.528
കീഴ	-10.529
യ്ക്കുന്നത്	-10.5292
ത്തോടൊപ്പം	-10.5294
ീട്ടി	-10.5301
▁തേക്ക്	-10.5303
▁അരയാ	-10.5305
▁ഉത്തരവ	-10.5306
▁ചതുപ്പു	-10.5306
▁സിവിൽ	-10.5308
▁ആദ്യകാലത്ത്	-10.5314
ber	-10.5315
iv	-10.5318
▁കയറ്റുമതി	-10.5321
▁ഏറ്റവുമധിക	-10.5321
▁മൗലവി	-10.5321
▁അടിത്തറ	-10.5321
▁പരിഹരിക്ക	-10.5321
ന്ദ്ര	-10.5323
സംസ്കൃത	-10.5325
▁1973	-10.5326
▁നടത്തുക	-10.5327
▁പുതുക്കി	-10.533
▁ക്രിക്കറ്റ	-10.5331
ബുദ്ധ	-10.5333
ാനാകും	-10.5336
ച്ചില	-10.5341
▁സപ്ത	-10.5348
▁കാലത്തു	-10.535
▁നോട്ട	-10.5352
വിശേഷ	-10.5356
▁പുരസ്കാരങ്ങൾ	-10.5357
▁മുക്ത	-10.5358
▁പെടുന്ന	-10.5366
▁ചുട്ടി	-10.5367
▁നമസ്കാര	-10.538
▁നിർവഹിക്ക	-10.5382
▁മറാഠ	-10.5382
▁പരിണാമ	-10.5382
▁ഉടലെടുത്ത	-10.5383
▁ഫ്രെഞ്ച	-10.5383
▁ശിശു	-10.5383
▁പോഷകനദി	-10.5383
▁സർവീസ	-10.5386
▁ഇലക്ട്രോ	-10.5386
▁മറ്റുള്ള	-10.5389
▁ദള	-10.539
▁ലണ്ടൻ	-10.5393
ുന്നതിന്റെ	-10.5396
ോയ്ഡ	-10.5397
▁താങ്ങ	-10.5399
▁വ്യാപ്ത	-10.5399
ish	-10.54
മ്പ്ര	-10.5405
▁കണക്കു	-10.5408
▁ഒക്കെ	-10.5409
നീസ്	-10.5414
▁കൊക്കോ	-10.5419
▁മാതൃ	-10.5422
▁ശിവക്ഷേത്ര	-10.543
ുടലി	-10.543
യിലേയും	-10.5435
പ്പെടുകയുണ്ടായി	-10.5438
▁പഠിക്കുന്ന	-10.5441
▁1000	-10.5442
▁തെളിവുകൾ	-10.5442
▁ആക്റ്റ	-10.5444
▁ഉത്തരേന്ത്യ	-10.5444
▁മാതാപിതാക്കൾ	-10.5444
▁പ്രകടിപ്പിച്ച	-10.5444
▁ആന്ധ്ര	-10.5444
▁ഉത്തർ	-10.5447
▁പനച്ചി	-10.5449
▁താമര	-10.5456
യുണ്ടാ	-10.5457
▁1920	-10.546
▁72	-10.5464
▁അസോസിയേഷൻ	-10.5465
▁കിടക്കുന്നു	-10.5467
യന്ത്ര	-10.5468
▁ഇലന്ത	-10.5472
▁പ്രസിഡന്റായി	-10.5472
▁മോക്ഷ	-10.5481
കളെക്കുറിച്ച	-10.5491
▁ടീമിന്റെ	-10.5503
▁നേടാ	-10.5504
സാരി	-10.5504
▁ഇസ്രായേല	-10.5507
▁ബർദിയ	-10.5507
▁സുഗന്ധ	-10.5507
▁ഓപ്പൺ	-10.5507
▁വിശ്രമ	-10.5507
▁സിൽവർ	-10.5509
ഹാസ	-10.551
ുയർത്തി	-10.5511
▁കണ്ണാടി	-10.5511
പരമ്പര	-10.5514
േണ്ടതുണ്ട്	-10.5516
പ്പരപ്പ	-10.552
ത്തിരി	-10.5521
▁മിശ്രിത	-10.5523
▁പഞ്ഞി	-10.5526
മുടി	-10.5528
▁വടക്കുഭാഗത്ത	-10.5528
ുണ്ണി	-10.5531
▁ഭാഗവും	-10.5532
▁ബോംബ	-10.5532
▁കുരുടി	-10.5534
▁സൈന്യത്തെ	-10.5539
▁പുല്ല	-10.5545
▁സേവനമനുഷ്ഠിച്ച	-10.5546
▁നൂറു	-10.5548
ിനെക്കുറിച്ച	-10.5554
▁ജീവൻ	-10.5557
▁സുരക്ഷ	-10.5561
▁രാജാവായിരുന്ന	-10.5562
▁ധൂ	-10.5562
▁ഭൂപ്രകൃതി	-10.557
▁ഉത്പന്ന	-10.557
▁ഫ്ലാഷ്	-10.557
▁ലത്തീൻ	-10.557
▁ഓക്സൈഡ	-10.5571
▁ധ്യാന	-10.5571
▁ജന്മി	-10.5575
▁പേരുകളിലു	-10.5575
ത്തുടർന്ന്	-10.5576
▁പ്രതിഭാസ	-10.5579
▁സമീപന	-10.558
▁പ്രസാദ	-10.5581
si	-10.5582
നെന്ന	-10.5583
▁ഇലഞ്ഞി	-10.5583
ാവൂ	-10.5586
▁തിരക്ക	-10.5587
▁ഗിരി	-10.5587
▁വാൾ	-10.5588
▁വാദിച്ചു	-10.5589
▁കൊല്ലപ്പെട്ടു	-10.5592
▁ചോദ്യ	-10.5593
▁അധികാരത്തിലെത്ത	-10.5593
▁മൂപ്പ	-10.561
▁രോമ	-10.5613
ക്കാരാണ്	-10.5616
▁മനസ്സിലാക്കി	-10.5625
▁അടുപ്പ	-10.5633
▁പ്രതിനിധീകരിച്ച	-10.5633
▁പഠിപ്പിച്ച	-10.5633
▁വാസ്തു	-10.5633
▁ചാൾസ്	-10.5634
പ്പൊട്ടൻ	-10.5634
▁ആക്രമിച്ച	-10.5635
▁ക്രിസ്ത്യാനികൾ	-10.5635
▁പുലർത്ത	-10.5636
▁അമീർ	-10.5636
▁1932	-10.5638
ന്മാരിൽ	-10.5639
▁ഹാസ്യ	-10.5639
▁തെരുവ	-10.5639
▁ഏർപ്പെടുത്തിയ	-10.564
േക്കാം	-10.5646
▁ആഘോഷിക്ക	-10.5649
ിനെതിരേ	-10.5649
▁ആപ്പിൾ	-10.5651
▁തുടങ്ങുന്നത്	-10.5652
▁നോവലാണ്	-10.5653
▁വിശ്വാസികൾ	-10.5655
ശങ്കര	-10.5655
▁ഉറപ്പിച്ച	-10.566
▁വ്വ	-10.5663
യിൽനിന്ന്	-10.5668
▁താഴെയാണ്	-10.5669
▁കാരക്ക	-10.5671
▁വളഞ്ഞ	-10.5671
▁വീടുകള	-10.5674
▁കരാർ	-10.5678
▁നാമകരണം	-10.5689
▁അനവധി	-10.5697
▁ഉത്തരവാദിത്ത	-10.5697
▁നാമനിർദ്ദേശം	-10.5697
▁ഡോളർ	-10.5697
▁വരികയും	-10.5697
▁മിശ്ര	-10.57
▁1959	-10.5704
ുമ്പോഴ	-10.5704
▁ചുറ്റുമുള്ള	-10.5705
▁സെനറ്റ	-10.5706
ാവതി	-10.5716
▁പതിനാറ	-10.5716
▁വ്യക്തമായി	-10.5718
▁പുറത്തിറക്കി	-10.5722
പൂർണ്ണ	-10.5723
org	-10.5723
ear	-10.5724
▁നിലകളിൽ	-10.5726
▁La	-10.5727
ുകൊണ്ടിരിക്കുന്ന	-10.573
▁ആഞ്ഞിലി	-10.5731
▁പദ്ധതികൾ	-10.5731
▁തന്നെയായിരുന്നു	-10.5738
ീനിയ	-10.5738
▁സർവ്വകലാശാലയിൽ	-10.5739
▁ലോകത്ത്	-10.5742
▁ദ്രവ	-10.5744
യിലോ	-10.5752
▁കോഴി	-10.5753
ക്രമത്തിൽ	-10.5759
▁നവാബ്	-10.576
▁തൃശ്ശൂര	-10.5761
▁ജർമൻ	-10.5761
മേഖലയിൽ	-10.5762
▁പ്രതിസന്ധി	-10.5762
▁ക്യാമറ	-10.5762
▁പീഡന	-10.5762
▁അക്ബറ	-10.5764
▁ചന്ദ്രഗുപ്ത	-10.5764
യോദ്ധാ	-10.5764
ിരുന്നുവെങ്കിലും	-10.5765
▁ശംഖ	-10.5774
ff	-10.5782
▁കാട	-10.5782
യിലുണ്ട്	-10.5783
▁ആർച്ച്	-10.5786
▁രഥ	-10.5796
▁ഇടപെടല	-10.5796
▁രഞ്ജിത്	-10.5797
▁ലക്ഷ്യമാക്കി	-10.58
▁വരച്ച	-10.58
▁പൊന്ന	-10.5802
▁റിയാ	-10.5803
▁വശത്ത	-10.5805
▁ശരിയ	-10.581
▁ദേവീ	-10.5813
▁400	-10.5815
▁ഏഷ്യയിലെ	-10.5816
റുത്ത	-10.5818
ata	-10.5819
▁ദേശീയത	-10.5822
▁2005-	-10.5822
▁തദ്ദേശ	-10.5822
▁യമ	-10.5823
ഋ	-10.5825
▁ഉരുത്തിരിഞ്ഞ	-10.5825
▁അദ്വൈത	-10.5825
▁വിപണന	-10.5825
▁കൂട്ടായ്മ	-10.5825
▁മില്ലി	-10.5826
▁മംഗള	-10.5826
▁പലിശ	-10.5828
▁ക്രൂര	-10.5829
▁നാട്ടുരാജ്യ	-10.5832
▁അച്ഛന	-10.5835
▁സമഗ്ര	-10.5837
▁നേരിടുന്ന	-10.5837
മാതാ	-10.5838
▁എപ്പോഴു	-10.5838
▁ആധാര	-10.5839
▁സ്ഥാനത്ത്	-10.584
▁ലോകത്തിന്റെ	-10.5844
tic	-10.5844
പർവ്വ	-10.5845
രാജാവ്	-10.5847
▁പ്രാപിക്ക	-10.5847
▁സീസണിൽ	-10.5848
▁വ്യാപകമായ	-10.5851
വെയ്	-10.5853
ലേക്ക്	-10.5861
▁Ba	-10.5875
▁ചേർത്തു	-10.5876
▁സമൂഹത്തിൽ	-10.5878
▁കൊടുത്തു	-10.5878
പേക്ഷ	-10.588
▁പ്രബന്ധ	-10.5882
ath	-10.5888
▁മാധവൻ	-10.5888
▁ഷെയ്	-10.589
▁വളരെയേറെ	-10.589
▁സൗഹൃദ	-10.589
▁സിംഹാസന	-10.589
▁രാജാക്കന്മാർ	-10.589
▁ആക്രമിച്ചു	-10.5891
▁വെബ്സൈറ്റ	-10.5891
▁വഴന	-10.5891
▁ധീര	-10.5892
ല്ലെന്നു	-10.5892
▁ശീത	-10.5894
▁സുവിശേഷ	-10.5895
▁നേടിക്കൊടു	-10.5896
നുസരിച്ചു	-10.5896
▁സെന്ററ	-10.5899
വ്യാപാര	-10.5902
▁സർപ്പ	-10.5902
▁ചിറ്റാ	-10.5902
▁സ്റ്റീ	-10.5902
പീഠ	-10.5903
▁അത്തി	-10.5904
▁പത്താം	-10.5909
▁ശരീരത്തിൽ	-10.5909
മഹാരാജാവ	-10.5913
▁ദ്രവ്യ	-10.5921
▁വഹിക്ക	-10.5922
▁മഞ്ചാടി	-10.5924
▁മരോട്ടി	-10.5924
▁പാറപ്പ	-10.5925
▁ആദ്യകാലങ്ങളിൽ	-10.5926
ദാര	-10.5928
▁ഇംഗ്ലണ്ടിലെ	-10.593
▁പുലർത്തുന്ന	-10.5934
▁ഫോറ	-10.594
▁ബീജ	-10.5953
▁ഋഷി	-10.5956
▁ദേവസ്വം	-10.5956
മാണിക്യ	-10.5956
ശൂന്യ	-10.5957
▁നാര	-10.5957
▁നിയോഗിച്ച	-10.5957
▁വിരിഞ്ഞ	-10.5962
▁ദൂരദർശിനിയുടെ	-10.5963
▁1939	-10.5963
▁സ്പർശ	-10.5964
▁മദ്രാസ	-10.5965
ഷേ	-10.5968
hu	-10.5969
▁പടിഞ്ഞാറേ	-10.5973
▁ചൗ	-10.5974
▁കിലോ	-10.5979
വിട്ടു	-10.5979
▁അലിയുടെ	-10.5979
▁തന്ന	-10.598
▁ഉണ്ടായിരുന്നത്	-10.5984
ദ്ദേഹം	-10.5989
വാഹക	-10.5993
▁കളിക്കുന്ന	-10.5994
▁എന്നറിയപ്പെട്ട	-10.5995
ക്കുന്നതിൽ	-10.5998
ാധിപത്യ	-10.5999
ev	-10.5999
▁നടുവ	-10.601
ണമെങ്കിൽ	-10.601
നിർണയ	-10.6014
▁കുത്തി	-10.6018
iz	-10.602
▁റോബർട്ട്	-10.6022
▁പ്രശംസ	-10.6022
▁മാർച്ചിൽ	-10.6022
▁നിരോധിച്ച	-10.6022
▁കണ്ടുപിടിച്ച	-10.6023
lock	-10.6023
▁കാറ്റാടി	-10.6023
ത്തിലായി	-10.6024
▁ബ്രിട്ടിഷ്	-10.6025
▁മാധവ	-10.6028
▁Bo	-10.6029
▁പാണ്ഡവ	-10.603
▁പ്രതിപക്ഷ	-10.603
▁പരിചയപ്പെടുത്ത	-10.6031
‘	-10.6035
▁മനുഷ്യര	-10.6039
▁ബർമ	-10.6039
▁മാത്രമായിരുന്നു	-10.604
▁2008-	-10.604
ക്കൊണ്ടു	-10.6043
▁യാഗ	-10.6043
ina	-10.6045
▁തുടർച്ചയായ	-10.6048
വീര്യ	-10.605
▁ക്യാമ്പ	-10.6054
ിരിക്കെ	-10.606
▁ജനങ്ങളിൽ	-10.6069
▁കോടതിയിൽ	-10.6069
▁വർഷത്തോള	-10.6073
ങ്ങളെപ്പറ്റി	-10.6073
▁വഹിക്കുന്നു	-10.6075
▁നീർവാ	-10.6079
ുൾപ്പെടെ	-10.608
കോൺ	-10.6086
▁ഉഷ്ണമേഖലാ	-10.6088
▁പാചക	-10.6088
▁ഫീൽഡ്	-10.6089
▁ദുരിത	-10.6089
▁കടുക്ക	-10.6091
▁വിശദമായ	-10.6091
▁1946	-10.6094
▁ഹരിയാന	-10.6094
▁സായുധ	-10.6096
▁ഫ്രാൻസിസ്	-10.6097
▁ഗോളുകൾ	-10.6098
▁രീതിയാണ്	-10.61
ഗതാഗത	-10.6102
സങ്കല്പ	-10.6102
യുമുള്ള	-10.6106
▁സൗത്ത്	-10.6108
▁ഉത്തർപ്രദേശിലെ	-10.6108
▁റോസ്	-10.612
▁പേരുള്ള	-10.612
ഞ്ചിയം	-10.612
▁കുറക്ക	-10.613
▁കിടന്ന	-10.613
▁ഉറപ്പു	-10.6133
▁റൺ	-10.6133
▁നീക്കി	-10.6134
അബ്ദുല്ല	-10.6135
▁പ്രവർത്തനങ്ങളിൽ	-10.6135
▁പശ്ചാത്തലത്തിൽ	-10.6139
▁കൊട്ടാരത്തിൽ	-10.6142
ലൻഡ്	-10.6153
▁ആയുർവേദ	-10.6154
▁ജാപ്പനീസ്	-10.6154
▁ഡിജിറ്റൽ	-10.6154
▁ഉദ്ദേശ്യ	-10.6154
▁പരമേശ്വരൻ	-10.6154
▁അതേസമയം	-10.6154
▁ഐപാഡ്	-10.6154
▁എബ്രായ	-10.6155
position	-10.6155
▁ബ്രസീല	-10.6155
കോടതി	-10.6156
ക്കായുള്ള	-10.6156
▁അനുമാനിക്ക	-10.6157
വർദ്ധന	-10.616
ദൂര	-10.616
▁റഹ്മാൻ	-10.6163
പക്ഷി	-10.6163
fon	-10.6165
മന്ത്രിയായിരുന്ന	-10.6165
നിർദ്ദേശ	-10.6166
ment	-10.6168
വാദ്യ	-10.6173
പ്രക്രിയ	-10.6179
▁നയിക്ക	-10.6185
▁കുട്ടികളെ	-10.6188
▁പ്രചാരണ	-10.6194
▁ആരംഭിക്കുന്ന	-10.6194
▁സുന്നി	-10.6196
out	-10.62
▁ശതമാന	-10.6202
മനോഹര	-10.6208
▁Ro	-10.6216
▁ബന്ദ	-10.6216
▁രചയിതാവ	-10.6222
▁കാസർഗോഡ്	-10.6222
▁പ്രേക്ഷക	-10.6222
▁ലക്ഷ്മണ	-10.6222
▁ചെയർമാൻ	-10.6222
▁ന്യൂനപക്ഷ	-10.6222
▁ഭൂകമ്പ	-10.6222
ങ്ങളുമുണ്ട്	-10.6222
▁ഡയറക്ടറ	-10.6223
▁നെടുനാ	-10.6223
▁കൈവരിക്ക	-10.6225
▁അവസാനിച്ചു	-10.6227
▁രാജ്യാന്തര	-10.6228
▁നടപ്പ	-10.6229
▁സ്വന്തമാക്കി	-10.6232
▁തൊഴ	-10.6235
▁ചെയ്	-10.6237
▁ഭാഗമായിരുന്നു	-10.6246
▁സമൃദ്ധമായ	-10.6246
പ്പെടുക	-10.6257
▁പേരുണ്ട്	-10.6271
▁സുബ്രഹ്മണ്യ	-10.6272
▁ഒരോ	-10.6275
▁ഫീ	-10.6277
▁ഇംഗ്ലണ്ടിന്റെ	-10.6279
▁സയ്യിദ്	-10.6289
▁നിബന്ധന	-10.6289
▁കൈവരിച്ച	-10.6291
മാണെങ്കിലും	-10.6291
▁അവതരണ	-10.6291
▁പഞ്ചസാര	-10.6292
▁എന്നർത്ഥം	-10.6292
▁ഉരുള	-10.6292
▁നാരങ്ങ	-10.6293
▁ഉറപ്പ	-10.6297
▁ക്ഷേത്രത്തിനു	-10.6298
▁ഓഹരി	-10.63
യേറിയ	-10.6302
▁തുറക്ക	-10.6305
ച്ചിറക	-10.6307
▁പേഴ്	-10.6308
▁ടയറ	-10.631
▁ഉമർ	-10.6316
രംഗത്തെ	-10.6323
▁ആണെന്ന്	-10.6329
▁പരിഷ്	-10.633
▁മാത്രമായി	-10.6333
പരിഷ്കാര	-10.6336
▁നൈട്ര	-10.6337
▁ദൈവിക	-10.634
▁നായകനായ	-10.6345
▁മനസ്സിലാക്കിയ	-10.6347
നിർണ്ണയ	-10.6347
▁മുൻകാല	-10.6348
▁ഹോക്കി	-10.635
േണ്ടിവന്നു	-10.6353
▁നിഴൽത്തുമ്പി	-10.6357
▁വെനസ്വേല	-10.6357
▁വെല്ലുവിളി	-10.6357
▁മണിക്കൂർ	-10.6357
▁വിശ്വസിക്കുന്ന	-10.6359
ത്തിൽനിന്ന്	-10.6359
▁പ്രത്യേകതയാണ്	-10.636
▁മലങ്കര	-10.6362
▁1949	-10.6364
▁1934	-10.6365
▁പരക്കെ	-10.6365
▁തീരുമാനിക്ക	-10.6367
വേളയിൽ	-10.6369
▁പുറത്തിറങ്ങ	-10.6371
ബാദി	-10.6371
പീഡ	-10.6372
▁കവിതകൾ	-10.6375
▁വിൽക്ക	-10.638
▁കുറെ	-10.6382
വാണി	-10.6385
▁ചുരുങ്ങിയ	-10.6385
േണ്ടതാണ്	-10.6406
▁പരാമർശിക്കുന്ന	-10.6406
▁തരത്തിൽ	-10.6407
▁മണ്ഡലത്തിൽ	-10.6415
▁നേരിടേണ്ടി	-10.6418
vu	-10.642
▁കാലാവസ്ഥാ	-10.642
▁കാലങ്ങളിൽ	-10.6421
തിയാൽ	-10.6421
▁അഹമ്മദ്	-10.6423
▁വിമർശക	-10.6426
▁സെഞ്ച്വറി	-10.6426
▁പ്രത്യേകിച്ചും	-10.6427
ഫീസ	-10.6427
▁ഏകദിന	-10.6431
▁കർണ്ണ	-10.6432
ാകൃതിയിലുള്ള	-10.6433
▁ജനറല	-10.6434
▁വേങ്ങ	-10.6436
ൊഴുകുന്ന	-10.6438
▁2002-	-10.6439
▁ഫലപ്രദമായ	-10.6442
മൃഗ	-10.6445
ത്തിലൂടെയാണ്	-10.6451
ത്തെക്കുറിച്ചു	-10.6452
▁മുറിവ	-10.6458
▁വോൾ	-10.6462
ക്കൊന്ന	-10.6467
▁കീഴിലാണ്	-10.6467
▁ഏറിയ	-10.6468
▁ചിങ്ങ	-10.6473
▁വാജ്	-10.6479
▁ഉദാഹരണമായി	-10.6479
ച്ചുകൊണ്ട്	-10.6481
▁മാറുന്നു	-10.6481
▁പുരി	-10.6485
▁ഭൂവിഭാഗ	-10.6488
va	-10.6489
▁വെന്ത	-10.6494
0′′	-10.6495
▁അഖിലേന്ത്യാ	-10.6495
▁സൗരയൂഥ	-10.6495
▁ദരിദ്ര	-10.6495
▁മുന്നോട്ട്	-10.6495
▁പ്രകടിപ്പിക്ക	-10.6495
▁സംഗമ	-10.6496
▁പ്രേമ	-10.65
▁അരയാൽ	-10.6502
ഡൈ	-10.6509
▁മറിച്ച്	-10.6512
▁കലാശ	-10.6515
▁സ്രോതസ്സ	-10.6516
▁കുടമാ	-10.6521
ബ്രിട്ടീഷുകാരുടെ	-10.6521
▁മൂങ്ങ	-10.6522
ൂട്ട്	-10.6522
▁അനുയോജ്യമായ	-10.6522
ൊഴുക്ക	-10.6525
▁വീട്ടു	-10.6526
▁വില്ലേജാണ്	-10.6533
പെരിയാർ	-10.6536
െഴുതി	-10.6544
ബറി	-10.6545
▁വസ്തുത	-10.6546
ബ്യൂ	-10.6551
ങ്ങാടി	-10.6555
ുണ്ടു്	-10.6563
▁മത്സരിച്ച	-10.6563
repeat	-10.6564
▁ചൂണ്ടിക്കാണിക്ക	-10.6564
▁താമസിയാതെ	-10.6564
▁വിഖ്യാത	-10.6564
▁രൂക്ഷ	-10.6564
▁കൊടുമുടി	-10.6564
▁സ്വീഡ	-10.6565
▁വിപുലമായ	-10.6565
▁മക്കയിൽ	-10.6565
▁കുരിശ	-10.6566
▁വിവരമനുസരിച്ച്	-10.6567
▁ഭക്ഷിക്ക	-10.6568
▁സ്റ്റാർ	-10.657
▁ഗാർഡ	-10.6571
▁ഉഷ്ണ	-10.6577
നിരോധന	-10.658
▁ചരക്കു	-10.658
▁പകരമായി	-10.6589
ക്കുളം	-10.659
▁നേരത്തെ	-10.6593
▁അവിടുത്ത	-10.6594
▁നിർമ്മിക്കുന്നത	-10.6595
▁തയ്യാറാക്കുന്ന	-10.6595
▁പെട്ടെന്നു	-10.66
▁സഹായിക്കുന്ന	-10.6604
▁പരിച	-10.6604
▁മഹർഷി	-10.6608
ിക്കുന്നതു	-10.6609
▁നിർമ്മിക്കാൻ	-10.6613
▁കോൺഗ്രസ	-10.6616
▁വയ്ക്കുന്ന	-10.6628
har	-10.6629
▁കർപ്പൂരം	-10.6634
▁ഖിലാഫത്ത	-10.6634
▁കാലാവധി	-10.6634
▁സന്നദ്ധ	-10.6634
▁പ്രക്ഷേപണ	-10.6634
▁വസന്ത	-10.6634
▁ലാഹോറ	-10.6634
▁ആരാധക	-10.6635
▁അബൂബക്കർ	-10.6635
▁നമ്പൂതിരിപ്പാട്	-10.6635
▁ആത്മകഥ	-10.6636
▁ചെവി	-10.6639
▁1963	-10.6639
▁അലക്സ	-10.6639
▁കൃതികളിൽ	-10.6641
▁ശൈവ	-10.6644
ബാബുൽ	-10.6644
ുഞ്ചൻ	-10.6651
▁ശരത്	-10.6652
▁ഇതൊരു	-10.6652
▁ഒടുക്ക	-10.6656
▁സംസ്ഥാനത്തിലെ	-10.666
▁മാതാവ	-10.6661
▁പൂത	-10.6662
ബദ്ധ	-10.6663
▁ഉണ്ടായിരിക്കും	-10.6664
പെടുന്ന	-10.6668
▁വായുവ	-10.6671
▁അറിയിക്ക	-10.6682
▁ശരവേഗ	-10.6682
▁ആകുന്നു	-10.6685
▁പ്രതിഭ	-10.6691
▁ശബരിമലയിൽ	-10.6691
▁ഉണ്ടാക്കി	-10.6693
▁നിർമിത	-10.6694
ിക്കട	-10.6696
പറഞ്ഞ	-10.6698
▁2007-	-10.6701
▁അലക്കു	-10.6702
കായ്	-10.6703
▁തെരഞ്ഞെടുത്ത	-10.6704
▁ക്യാപ്റ്റൻ	-10.6704
▁തർജ്ജമ	-10.6704
▁ഈജിപ്റ്റ	-10.6704
▁ലക്ഷ്മീ	-10.6704
▁ഉദ്ദേശിച്ച	-10.6704
▁ലാറ്റിൻ	-10.6705
▁കമ്മീഷന	-10.6706
▁കലാരൂപ	-10.6707
ടൗൺ	-10.6707
▁വിവരിച്ച	-10.6708
▁ഹോട്ടല	-10.671
▁1968	-10.6712
െങ്ങ്	-10.6712
ുകയുള്ളൂ	-10.6714
▁ഇസ്ലാമ	-10.6715
േറ്റീവ്	-10.6715
▁അളക്ക	-10.6716
െത്തിയത്	-10.6718
▁എക്സ്പ്രസ്സ്	-10.6719
▁ഇറാനി	-10.6722
▁റബർ	-10.6727
▁ലഭിച്ചിരുന്നു	-10.6732
▁മദ്യ	-10.6733
ജ്ഞനായ	-10.6738
ാനായില്ല	-10.6742
▁ജീവിക്ക	-10.6745
▁അറുപത	-10.6753
▁പഞ്ചായത്തിലെ	-10.6755
ങ്ങളോട്	-10.6758
▁con	-10.6759
ous	-10.6761
▁ഐക്യനാടുകള	-10.6765
▁മലബാറ	-10.6766
പ്രിയ	-10.6775
▁കൂട്ടിച്ചേർത്ത	-10.6775
▁വേട്ടയാട	-10.6776
▁സന്ധ്യ	-10.6776
▁അവളെ	-10.6776
▁എട്ടാം	-10.6776
▁മെച്ചപ്പെട്ട	-10.6776
▁വർദ്ധിക്ക	-10.6777
▁ഉപ്പു	-10.6779
▁മഹാഗണി	-10.6791
“	-10.6799
▁കരിഞ്	-10.68
പ്പറ്റിയുള്ള	-10.6804
ിക്കൊണ്ടിരിക്ക	-10.6805
▁തൊഴിലാളികൾ	-10.6807
▁തെയ്യ	-10.6809
▁ശലഭ	-10.682
ബംഗ	-10.6822
▁സൗര	-10.6839
ോപകരണങ്ങൾ	-10.6839
▁ആവിഷ്കരിച്ച	-10.6847
▁പോർട്ടുഗീസ	-10.6847
▁ചേരാച്ചിറക	-10.6847
▁കണക്കിലെടുത്ത	-10.6847
▁കുളമാവ്	-10.6847
▁കൊണ്ടുപോക	-10.6847
ഭൂഷൺ	-10.6847
▁മൽസര	-10.6847
▁സമർപ്പിക്ക	-10.6849
▁ജോർജ്ജ്	-10.685
▁ആധാരമാക്കി	-10.685
▁തടഞ്ഞ	-10.6851
▁was	-10.6851
നാഗ	-10.6851
▁നിർദ്ദേശിച്ച	-10.6858
▁നടപ്പിലാക്കിയ	-10.6859
▁ബാധിക്ക	-10.6865
▁പങ്കാളിത്ത	-10.6869
ചലന	-10.6877
▁അരങ്ങേറ	-10.6877
ർഥം	-10.6878
▁ശേഷവും	-10.6881
▁പ്രതല	-10.6884
▁വികസിപ്പിക്ക	-10.689
▁പാച്ച	-10.6893
യാങ്	-10.6894
▁ജന്തുക്കള	-10.6897
ലഞ്ഞി	-10.6898
▁കൈയ്യ	-10.69
▁പൂജ്യ	-10.69
▁കരിഞ്ഞ	-10.6904
യിലൂടെയാണ്	-10.6904
മായിട്ടാണ്	-10.6906
▁നക്ഷത്രങ്ങളുടെ	-10.6912
▁നേതൃ	-10.6917
▁ഐക്യരാഷ്ട്ര	-10.6918
▁യൂക്കാലിപ്റ്റ	-10.6919
▁റിച്ചാർഡ്	-10.6919
▁മൃദു	-10.6919
▁അഴിമതി	-10.6919
▁പര്യായ	-10.692
▁മകനായ	-10.6921
▁ജനപ്രിയ	-10.6922
▁ഉന്നം	-10.6922
കുറുപ്പ	-10.6924
പ്പിൾ	-10.6924
കീർത്ത	-10.6924
▁ദേശീയപാത	-10.6928
▁അനുപാത	-10.6928
▁ബദാം	-10.693
▁തിരുക്ക	-10.6931
▁പ്രതികരണ	-10.6932
ക്കാട്ട	-10.6933
▁അധികവും	-10.6936
▁വളയ	-10.6937
▁വേർതിരിച്ച	-10.694
▁രാജ്യങ്ങളിലെ	-10.6944
പാരമ്പര്യ	-10.6944
പുഷ്പ	-10.6946
▁ഉൾപ്പെടുത്ത	-10.6947
▁നഖ	-10.6948
വൈദ്യ	-10.6949
▁നോവലുകള	-10.6953
▁നിരക്ക	-10.6956
▁തീറ്റി	-10.6958
ത്തേയ്ക്ക	-10.6959
▁ഇവയ്ക്കു	-10.696
▁മണ്ണിൽ	-10.6966
▁സ്ഥാപിക്കുകയും	-10.6967
മാതൃക	-10.6967
▁ഉത്തർപ്രദേശിൽ	-10.6968
കൊണ്ടുള്ള	-10.6969
▁മുമ്പു	-10.6971
▁ഇൻഡോ	-10.6974
▁തുണി	-10.6975
▁മുല്ല	-10.6977
▁യൂറോപ്പിലെ	-10.6978
നാത്തി	-10.6982
▁ചിത്രത്തിലൂടെ	-10.6983
▁മഹാത്മാഗാന്ധി	-10.6991
▁രുദ്രാക്ഷ	-10.6991
▁സെന്റീമീറ്റ	-10.6991
▁സൗന്ദര്യ	-10.6991
▁മോഹൻലാൽ	-10.6991
center	-10.6991
▁വജ്ര	-10.6992
▁തമ്മില	-10.6993
▁കഅബ	-10.6993
▁അതിവേഗ	-10.6995
▁ദിവാൻ	-10.6995
▁തൊണ്ടി	-10.6996
▁pro	-10.6997
▁സമ്പത്ത	-10.6998
▁പ്രസിഡന്റായ	-10.7002
▁വ്യാളി	-10.7003
ame	-10.7005
▁പിടിച്ചെടുക്ക	-10.7007
ീശ്വര	-10.7011
▁അവശിഷ്ടങ്ങൾ	-10.7011
മനുഷ്യ	-10.7017
സൂര്യ	-10.702
▁ഉണക്ക	-10.7022
ങ്ങളെക്കുറിച്ചു	-10.7026
▁പാകിസ്താനിലെ	-10.7027
ച്ചിറ	-10.7028
▁ഓൺ	-10.7032
▁ലിയനാർഡോ	-10.7035
▁സീസണ	-10.7039
സർക്കാർ	-10.7045
▁കുടിയേറിയ	-10.7051
▁പതിനെട്ട	-10.7059
ക്കാവ്	-10.706
രാജാവായ	-10.7063
▁കശുമാവ്	-10.7064
▁മാന്ത്രിക	-10.7064
▁സമ്പദ്	-10.7064
▁പശ്ചിമഘട്ട	-10.7066
▁ഒരുപാട്	-10.7067
▁ഭൂഖണ്ഡ	-10.7067
▁തീരപ്രദേശ	-10.7068
▁അക്ഷരമാല	-10.7068
▁മദ്ധ്യേഷ്യ	-10.707
lno	-10.7071
▁മറ്റേത	-10.7074
▁അവധി	-10.7077
കിരണ	-10.7078
ർക്സിസ്	-10.7081
▁അമര	-10.7083
വിഭവ	-10.7086
ുകൊണ്ടുള്ള	-10.7092
:1	-10.7095
സ്താന	-10.7107
ാതിരിക്കാൻ	-10.7108
പേരിൽ	-10.7109
ഡൊ	-10.711
▁ആന്റി	-10.7117
പരിശോധ	-10.7122
▁ചെയ്യുമ്പോൾ	-10.7122
▁വലിയൊരു	-10.7123
▁എക്സ	-10.7128
▁po	-10.713
ിപ്പിച്ച്	-10.7132
▁തത്ത്വശാസ്ത്ര	-10.7132
subscription	-10.7138
registration	-10.7138
▁പുരോഗമന	-10.7138
▁മഹാവിഷ്ണു	-10.7138
▁മൃതദേഹ	-10.7138
▁ശീമപ്ലാവ്	-10.7138
▁പത്തൊൻപത	-10.7138
▁ബൗദ്ധ	-10.7138
www	-10.7138
അഫ്ഗാൻ	-10.7138
▁കുണ്ഡല	-10.7138
▁നിർമ്മിതി	-10.7138
▁സ്ഥാനാർത്ഥി	-10.7138
▁പ്രയാസ	-10.7138
▁പ്രചരിച്ച	-10.7139
▁ഫ്യൂ	-10.7139
▁നാവികസേന	-10.7139
▁നിലവിലുണ്ടായ	-10.7139
▁ദ്വാര	-10.7142
രിപ്പൂവ	-10.7142
▁ത്യാഗരാജ	-10.7143
▁1931	-10.7144
▁കാപ്പി	-10.7145
കോണ	-10.7146
▁അഫ്ഗാനിസ്താനിൽ	-10.715
ില്ലെങ്കിൽ	-10.7151
സാധാരണ	-10.7153
്രാളി	-10.716
▁കീഴടക്ക	-10.716
▁വഹിക്കുന്ന	-10.717
▁മിഷൻ	-10.7172
▁സ്ത്രീകളുടെ	-10.7182
▁ഭാഗങ്ങളും	-10.7193
കല്പന	-10.7203
▁ഭരണഘടനാ	-10.7204
▁മത്സരങ്ങളിൽ	-10.7211
▁ഇന്ദിരാഗാന്ധി	-10.7212
▁ഒബ്ജക്റ്റ	-10.7212
▁താൽക്കാലിക	-10.7212
▁ജസ്റ്റിസ്	-10.7212
▁ഡേവിഡ്	-10.7212
▁വിശദീകരണ	-10.7212
▁ഒതളം	-10.7212
▁ശിരസ്സ	-10.7212
▁വിക്ഷേപിച്ച	-10.7212
▁പുറത്തിറക്ക	-10.7217
▁ധാതുക്കള	-10.7218
▁അതോടൊപ്പം	-10.7218
▁1937	-10.722
▁യജ്ഞ	-10.7222
▁ലൈഫ്	-10.7224
▁ഭാഗികമായ	-10.7226
▁ചെയ്യുന്നതിന	-10.7226
▁കാഴ്ചപ്പാട	-10.7227
▁കുളപ്പു	-10.7232
▁നിശ്ചയിച്ച	-10.7232
▁ഗ്യാ	-10.7235
▁കറുപ്പു	-10.7236
▁ഭൂമിശാസ്ത്ര	-10.7236
▁ഉടനെ	-10.7238
▁ആയതിനാൽ	-10.7241
നിയന്ത്രണ	-10.7242
ത്തിൽനിന്നും	-10.7243
വരുമാനമാർഗ്ഗമായി	-10.7246
▁സംസാര	-10.7246
ുപോകുന്ന	-10.7248
▁കോൺഗ്രസിന്റെ	-10.7252
▁ആമത്ത	-10.7254
▁മുടി	-10.7256
▁മികവ	-10.7256
▁ദന്തപ	-10.7264
▁ക്യൂ	-10.7264
നിന്നാണ്	-10.7265
▁പെയ്	-10.7269
ദാഹരണ	-10.728
ഡബ്ല്യു	-10.7286
▁സാമൂതിരി	-10.7286
▁അഹ്മദ്	-10.7286
▁കാലക്രമേണ	-10.7286
ധാർമ്മിക	-10.7286
സ്ഫോടന	-10.7286
▁ഒന്നാമൻ	-10.7286
▁ചരിത്രകാരന്മാർ	-10.7286
▁യോജിച്ച	-10.7287
▁ഉദര	-10.7288
▁ആരാധനാലയ	-10.7289
▁അവയവ	-10.729
▁ഭോ	-10.729
▁ഫൈനല	-10.729
▁ചെറുതും	-10.729
▁സാഹിബ	-10.7292
▁ഉള്ളടക്കം	-10.7293
▁ഹൊ	-10.7294
വാസികൾ	-10.7295
▁കോൺസ്റ്റ	-10.7297
▁അഭിമുഖ	-10.7298
▁നടത്തിവരുന്നു	-10.7298
▁നോർത്ത്	-10.73
▁കോഴ്സ	-10.7305
▁ചുവടു	-10.7306
▁രക്ഷപ്പെട്ട	-10.7306
▁മേരി	-10.7311
ലക്ഷ്മി	-10.7318
പുരസ്കാര	-10.7318
▁ചാവേസ	-10.7319
▁അരണ	-10.7319
▁മുസ്ലീങ്ങള	-10.7323
മത്സര	-10.7323
▁തെരഞ്ഞെടുപ്പ	-10.7327
▁ലയിച്ച	-10.733
▁തൊഴിലുകളി	-10.7333
ത്തിലേക്കുള്ള	-10.7334
▁ചില്ല	-10.7339
▁മെത്രാന	-10.7358
▁ശങ്കരാചാര്യർ	-10.7362
▁തകർച്ച	-10.7362
▁ജനിതക	-10.7362
▁വസ്തുക്കളുടെ	-10.7363
▁ബ്ലാങ്ക	-10.7363
കുളങ്ങര	-10.7364
▁ഫോട്ടോ	-10.7366
▁ഓച്ചിറ	-10.7366
our	-10.7366
▁ശ്രമിക്ക	-10.737
▁വിത്തുകൾ	-10.7372
▁വിദൂര	-10.7374
▁ആൽമരം	-10.7374
▁ചീനി	-10.7377
▁ലാബ	-10.7377
per	-10.7378
▁ഭക്തർ	-10.7381
▁സങ്കര	-10.7386
▁ശതമാനവും	-10.7392
ങ്ങളോടെ	-10.7393
അമേരിക്ക	-10.7394
സ്വാതന്ത്ര്യ	-10.7394
ലൈറ്റ്	-10.7396
▁പുളിച്ച	-10.7399
▁തിരിച്ചറിയാൻ	-10.74
പട്ടിപ്പ	-10.7409
▁നൽകപ്പെട്ട	-10.7411
▁മധു	-10.7419
▁കരിമ്പന	-10.7426
▁സ്വീകരിക്കുന്ന	-10.7435
പിതാവായ	-10.7436
▁അരങ്ങേറ്റം	-10.7437
▁കരിങ്ങാലി	-10.7437
▁ബൾഗേറിയ	-10.7437
▁വിമർശിച്ച	-10.7437
▁ശാരീരിക	-10.7437
▁കണിക്കൊന്ന	-10.7437
▁മസ്ജിദ്	-10.7437
▁സെൻട്രൽ	-10.7437
▁യാഹൂ	-10.7437
▁സ്തുതി	-10.7439
▁ഫരീദ	-10.744
▁യേശുവിന്റെ	-10.7442
▁ഒന്നിലധിക	-10.7443
▁ഒക്ടോബറിൽ	-10.7446
▁ഇന്ത്യയിലും	-10.7446
▁ഉച്ചരിക്ക	-10.7447
▁മാസത്തേക്ക	-10.7454
▁ആർമി	-10.7455
ധ്വനി	-10.7468
▁ഉരുക്ക	-10.7471
മാരംഭിച്ചു	-10.7471
▁ഒപ്പു	-10.7474
ത്തിലേറെ	-10.7477
▁മാറുകയും	-10.7477
▁ഉങ്ങ്	-10.7477
▁ബന്ധിപ്പിച്ച	-10.7478
▁കൃത്യത	-10.7478
▁അതിരുകൾ	-10.7479
▁ജാക്കറ	-10.7483
▁മക്കയിലെ	-10.7486
▁ഓക്സിജൻ	-10.7514
▁നെന്മേനിവാക	-10.7514
▁പണികഴിപ്പിച്ച	-10.7514
▁രക്തചന്ദനം	-10.7514
▁ഷാജഹാൻ	-10.7514
▁ക്ഷേമ	-10.7514
▁വെള്ളപ്പൊക്ക	-10.7514
സ്മൃതി	-10.7514
▁ശിവാജി	-10.7514
▁പശ്ചാത്തലസംഗീത	-10.7514
ദേവതാരം	-10.7514
▁ടൂറിസ	-10.7514
▁വരച്ചി	-10.7514
▁വെക്ക	-10.7516
▁പിരിഞ്ഞ	-10.7516
▁സ്കൂട്ട	-10.7517
▁ബാൽസ	-10.7519
▁സമാധി	-10.752
മായിത്തീർന്നു	-10.7523
▁സ്വരാജ്	-10.7528
▁കെനിയ	-10.7529
▁താന്നി	-10.7529
ind	-10.7531
രാശി	-10.7531
▁അമ്പഴ	-10.7532
▁യവന	-10.7533
▁ഇന്തോ	-10.7535
▁ആവശ്യപ്പെട്ട	-10.7536
▁അസാധാരണ	-10.7537
▁തിക	-10.7541
പ്രകാരമുള്ള	-10.7542
▁ചതുർ	-10.7548
▁മുട്ടയിട	-10.7551
▁കാരപ്പ	-10.7559
▁സാഹിത്യകാരന	-10.7562
▁പേരാൽ	-10.7565
▁കൃഷ്ണനാ	-10.7566
▁കഥാപാത്രങ്ങളെ	-10.7567
കവാട	-10.757
▁ഇതില	-10.7575
▁പീലിവാക	-10.7591
▁രൂപകൽപ്പന	-10.7591
▁എമിറേറ്റ	-10.7591
▁പുളിവാക	-10.7591
▁അത്യാവശ്യ	-10.7591
നൊച്ചി	-10.7591
▁വെള്ളവാക	-10.7591
▁ആറ്റുതേക്ക	-10.7591
▁നഷ്ടപ്പെട	-10.7591
▁വെള്ളകിൽ	-10.7592
▁കൂടുതലായും	-10.7592
ായുധ	-10.7593
കമുക്	-10.7594
▁കുടപ്പന	-10.7594
▁മീറ്ററോളം	-10.7594
▁മാതള	-10.7595
▁1929	-10.7596
▁അസീസ്	-10.7599
▁കല്ലില	-10.7602
▁സ്ഥലത്താണ്	-10.7604
▁അകലെയുള്ള	-10.7608
▁നീറോ	-10.761
▁75.8	-10.7613
▁ഈജിപ്തിലെ	-10.7615
▁വെയറ	-10.7616
ച്ചേർന്ന	-10.7617
▁സാധാരണക്കാര	-10.762
െക്കാട്ടി	-10.7621
▁മാത്രമുള്ള	-10.7624
കളുമുണ്ട്	-10.7625
ിനെപ്പറ്റി	-10.7631
▁രണ്ടാമത	-10.7635
വിതരണ	-10.7635
▁ഇലവ	-10.7636
▁കേന്ദ്രമാക്കി	-10.7637
ക്ഷമത	-10.7637
▁വിക്കറ്റ	-10.7637
▁സ്പീ	-10.7643
▁കുറിപ്പ	-10.7644
തിനാലും	-10.7645
▁ഇഞ്ചി	-10.7648
▁പറയുന്നുണ്ട്	-10.7654
▁ക്രിക്കറ്റിൽ	-10.7657
▁പൂത്തി	-10.7658
കൊണ്ടോ	-10.766
കൊണ്ടിരിക്കുന്നു	-10.7661
ുന്നതിലൂടെ	-10.7667
▁ചന്ദനവേമ്പ്	-10.7668
▁തണ്ണിമരം	-10.7668
▁സ്തൂപ	-10.7668
▁കാട്ടീന്ത	-10.7668
▁ട്രെയിന	-10.7668
▁ഒഴികെ	-10.7668
▁വിഭിന്ന	-10.7668
▁ഗേൾ	-10.7668
▁ചെറുപുന്ന	-10.7668
▁കുങ്കുമപ്പൂ	-10.7668
▁തുടക്കമിട്ട	-10.7669
▁മുഗള	-10.7669
▁സൗജന്യ	-10.7669
സൌകര്യ	-10.7669
▁ടാബ്	-10.767
▁ആരോപിച്ച	-10.767
▁നയതന്ത്ര	-10.7671
▁ജനപ്രീതി	-10.7671
▁വൃദ്ധ	-10.7671
ism	-10.7679
ിന്തകര	-10.7679
പ്രീതി	-10.7679
▁പ്രാകൃത	-10.7681
▁ആഗ്രഹിച്ച	-10.7683
▁പരാതി	-10.7685
▁കരിമരം	-10.7686
▁ജീനസ	-10.7687
ാരോഗ്യ	-10.7688
▁ചുരുളി	-10.7694
▁കഥാപാത്രത്തെ	-10.7697
▁വാൾട്ട	-10.7703
റുപ്പൻ	-10.7703
▁ബർമ്മ	-10.7705
▁വേപ്പ്	-10.7706
വാഹന	-10.7707
▁ഉണ്ടായിരിക്ക	-10.7709
▁അല്ലാത്ത	-10.7711
▁മുള്ളില	-10.7712
▁ഉണ്ടാവുന്ന	-10.7713
യാണെങ്കിലും	-10.7715
ിനുവേണ്ടി	-10.7716
ലിഖിത	-10.7718
▁രണ്ടോ	-10.7724
▁ഇലപ്പൊ	-10.7724
100	-10.7725
കളിലുള്ള	-10.7726
▁ചെറുകൊ	-10.7727
തിനേക്കാൾ	-10.7729
▁വിമത	-10.7735
▁മുൻപേ	-10.7736
▁താമസിക്ക	-10.7738
ംശപ	-10.7739
ംകൊല്ലി	-10.7746
▁Texa	-10.7746
▁ആരംപുളി	-10.7746
▁കോവിദാരം	-10.7746
▁ഡാർജിലിംഗ	-10.7746
▁നീർമാതള	-10.7746
▁മഴുക്കാഞ്ഞിരം	-10.7746
▁വാർത്താവിനിമയ	-10.7746
color	-10.7746
▁അരിനെല്ലി	-10.7746
▁കൂനമ്പാ	-10.7746
▁മില്യൺ	-10.7746
▁ഉഗാണ്ട	-10.7746
▁മഹത്തായ	-10.7746
▁കൂവളം	-10.7746
▁പൂവരശ്	-10.7747
▁ആദ്യത്തേത	-10.7747
▁മഞ്ഞക്കടമ്പ	-10.7747
പിടിച്ച	-10.7747
▁ജനുസ്സ	-10.7747
▁പോളണ്ട	-10.7748
പ്പേഴ്	-10.7749
ചടച്ചി	-10.775
▁1942	-10.7755
▁1936	-10.7756
▁വട്ടക്കു	-10.7758
വേങ്ങ	-10.776
▁മരിയ	-10.7761
▁പൂപ്പാത	-10.7763
പ്രവർത്തി	-10.7771
▁ലോകസഭ	-10.7771
▁Le	-10.7771
കാഴ്ച	-10.7772
▁ഏറ്റെടുത്ത	-10.7775
ൊഴികെ	-10.7775
▁കിടങ്ങ	-10.778
മുകം	-10.778
മഞ്ചാടി	-10.7784
മരോട്ടി	-10.7785
▁കത്തോലിക്ക	-10.779
സമൃദ്ധ	-10.7796
മാക്കാൻ	-10.7799
▁പിന്തുണച്ച	-10.78
▁ഇൻസ്റ്റ	-10.7805
കടുക്ക	-10.7808
▁ബാധിക്കുന്ന	-10.7818
▁അകത്ത	-10.7819
തുടങ്ങിയ	-10.7819
▁ഭാഷകളില	-10.7821
▁പുന്നപ്പ	-10.7823
▁കുടംപുളി	-10.7825
▁ഗബ്രിയേൽ	-10.7825
▁ഗുൽഗുലു	-10.7825
▁തണ്ടിടിയൻ	-10.7825
▁തെലുഗു	-10.7825
▁പൊന്തൻവാക	-10.7825
▁മുള്ളുവേങ്ങ	-10.7825
▁ഹൈഡ്രജൻ	-10.7825
▁ആറ്റുവഞ്ചി	-10.7825
▁കോർക്കുമരം	-10.7825
▁സ്പെയിന	-10.7825
▁സങ്കൽപ്പ	-10.7825
▁പൊട്ടവാക	-10.7825
▁ബ്ലാക്ക്	-10.7825
▁പരുത്തി	-10.7826
▁ചോദിച്ച	-10.7827
▁നീർമരുത്	-10.7827
▁മഞ്ഞക്കൊന്ന	-10.7827
▁മലവേമ്പ്	-10.7828
▁പ്രവർത്തിപ്പി	-10.7828
▁ഗണേശ	-10.7829
ുതാളി	-10.783
▁മുള്ളിലവ്	-10.783
▁ഹിന്ദുക്കള	-10.7831
▁ആറ്റുമ	-10.7831
▁മതഗിരി	-10.7833
▁ഗ്രേറ്റ്	-10.7833
▁കമ്പി	-10.7834
▁വീമ്പ്	-10.7834
ക്കുരുണ്ട	-10.7838
▁നിയമസഭാമണ്ഡല	-10.7838
▁ഓടമരം	-10.7838
▁കരിവേങ്ങ	-10.784
▁പടപ്പ	-10.7841
▁കടമ	-10.7848
▁വൈറ്റ്	-10.7848
തുമൂലം	-10.7854
▁പിനാറ	-10.7855
▁പൊരിയ	-10.7855
▁തീർക്ക	-10.7856
വേമ്പ്	-10.7856
▁പദാർത്ഥ	-10.786
മൊരുക്ക	-10.7861
സക്ത	-10.7862
ജ്യോതി	-10.7864
ജന്മ	-10.7864
▁കീർത്തന	-10.7865
▁എന്നിവരും	-10.7866
▁മൂട്ടി	-10.7868
യ്യാനി	-10.7869
വിഭാഗം	-10.7871
ട്ടുകൊന്ന	-10.7873
▁ശ്രദ്ധേയമാണ്	-10.7873
▁ചുരുള	-10.7878
▁ഏരിയ	-10.788
ാവണ്ടി	-10.788
▁ചെയ്യുന്നുണ്ട്	-10.7882
▁പേരില	-10.7886
പ്രയോഗ	-10.7892
▁പ്രമേയ	-10.7894
വിരിഞ്ഞി	-10.7895
▁താമസിച്ചിരുന്ന	-10.7896
സൈഡ്	-10.7896
രിവേങ്ങ	-10.7902
▁ആത്മഹത്യ	-10.7904
▁ആനത്തൊ	-10.7904
▁ഊന്നൽ	-10.7905
▁നക്സൽ	-10.7905
▁രൂപീകൃതമായ	-10.7905
▁ഗായിക	-10.7906
▁വടകര	-10.7912
▁1938	-10.7916
ാവിഷ്	-10.7917
▁നടരാജ	-10.7925
▁ശത്രുക്കള	-10.7925
ങ്കണ്ണി	-10.7929
▁വൈദ്യശാസ്ത്ര	-10.7931
▁എന്നിവിടങ്ങളിലെ	-10.7939
▁വിശ്വസിക്ക	-10.795
▁തോണി	-10.795
▁പച്ചിലമര	-10.795
▁ഏർപ്പെട	-10.7956
▁ചാർട്ട	-10.7956
▁ഉറുമ	-10.7966
വിഭാഗങ്ങള	-10.7967
▁നിറച്ച	-10.7967
▁ആറ്റില	-10.7967
െയറ	-10.7968
ലേറെ	-10.7969
▁നക്ഷത്രങ്ങളെ	-10.797
▁ചിന്നക	-10.7971
▁ഇസ്രായേൽ	-10.7984
▁പുറപ്പെടുവിക്ക	-10.7984
▁വിസ്തീർണ്ണമുള്ള	-10.7984
▁image	-10.7984
▁നാഗരികത	-10.7984
▁പലായനം	-10.7984
▁സസ്തനി	-10.7984
▁പ്രദാനം	-10.7985
▁കാർത്തിക	-10.7985
▁വികസിക്ക	-10.7985
▁ഇക്കാര്യ	-10.7985
▁വസതി	-10.7985
ാവസാന	-10.7985
ഛേദ	-10.7986
▁യോജിപ്പ	-10.7986
പ്രാപ്തി	-10.7987
▁അച്ചടി	-10.7988
▁വിവക്ഷിക്കാം	-10.799
▁ഉറച്ച	-10.7997
▁സ്ത്രീകളെ	-10.8011
ിരിയ്ക്കുന്നു	-10.8018
▁ഭയന്ന	-10.8018
പോലുള്ള	-10.8025
▁ചുണ്ട	-10.8038
വിജ്ഞാന	-10.8048
▁ഉറപ്പാക്ക	-10.805
▁കായല	-10.8054
▁രൂപപ്പെടുത്ത	-10.8057
▁സദാ	-10.8058
▁എഞ്ചിനീയറ	-10.8063
▁ജാർഡീ	-10.8065
▁ദ്രാവക	-10.8065
▁മൊബൈൽ	-10.8065
▁ഋതു	-10.8065
▁ഇല്ലാതാക്ക	-10.8065
▁ഓപ്പറ	-10.8065
▁നൂതന	-10.8065
▁തടവുകാര	-10.8066
▁ചുറ്റുപാട	-10.8066
▁ചാണക	-10.8067
▁മൈക്രോ	-10.8067
▁ഒളിവിൽ	-10.8068
▁ലവണ	-10.8068
ളാത്തി	-10.8071
▁ഉത്ഭവിച്ച	-10.8075
ക്കിടയിലെ	-10.8078
▁കാര്യങ്ങളിൽ	-10.8085
ook	-10.8087
സ്ഥാപിക്കപ്പെട്ട	-10.8089
▁ചെല്ല	-10.8089
▁നാസി	-10.8103
▁ബംഗാളിലെ	-10.8108
ദുർഗ	-10.811
നൃത്ത	-10.8112
ical	-10.8116
▁നാങ്ക	-10.8118
▁രക്തസാക്ഷി	-10.8126
ുണ്ടായിരിക്കും	-10.8133
▁എഴുതുന്ന	-10.8135
▁ഏറ്റെടുക്ക	-10.8135
▁തനിമ	-10.8137
പുള്ളിപ്പ	-10.8138
▁തകർത്ത	-10.8138
▁ധാരാളമ	-10.8138
▁അന്വേഷിച്ച	-10.8146
▁രക്താതിമർദ്ദ	-10.8146
▁സന്താന	-10.8146
▁കാന്തിക	-10.8147
▁സംസ്കരിച്ച	-10.8147
▁വിധായക	-10.8147
▁പേരിട്ട	-10.8147
രിങ്ങോട്ട	-10.8149
▁തികഞ്ഞ	-10.8152
▁Up	-10.8155
▁അനുഗ്രഹ	-10.8157
▁കുറുകെ	-10.8157
▁അവസാനിപ്പിക്ക	-10.816
വിലാസം	-10.8167
▁എടുക്കുന്ന	-10.8172
▁സമസ്ത	-10.8173
▁കരിമരു	-10.8175
▁തലവനായ	-10.8179
▁ചേർന്നതാണ്	-10.8185
▁ഭരിക്ക	-10.819
▁മ്യൂ	-10.8196
gar	-10.8208
▁അവസാനിപ്പിച്ച	-10.8208
▁കൽപ്പ	-10.8209
▁അടയ്ക്ക	-10.8212
▁കഴിഞ്ഞില്ല	-10.8215
▁പാട്ടുകൾ	-10.8223
les	-10.8226
വത്സര	-10.8226
padding	-10.8228
▁അക്കേദിയൻ	-10.8228
▁ടെക്നോളജി	-10.8228
▁ഗുരുവായൂർ	-10.8228
▁സംഘർഷ	-10.8228
▁അധ്യായ	-10.8229
▁ലൈസൻസ	-10.8229
▁തുള്ളൽ	-10.8231
▁1935	-10.8234
▁മരണമടഞ്ഞ	-10.8243
▁നിർണ്ണയിക്ക	-10.8245
ിലുടനീള	-10.8248
▁ഏക്കർ	-10.8248
▁ആർക്കും	-10.825
▁എല്ലാവരും	-10.8252
അബൂ	-10.8252
പേരൂർ	-10.8259
ങ്ങോട്ട	-10.8263
▁are	-10.8265
▁ഫറോ	-10.8275
ദ്ദീ	-10.8281
▁സ്വദേശ	-10.8289
▁നിരോധിക്ക	-10.829
▁അഭിനയിക്കുന്ന	-10.8297
▁കപ്പലുകൾ	-10.831
▁മമ്മൂട്ടി	-10.8311
ാനാവാത്ത	-10.8311
വിന്യാസ	-10.8313
▁പിന്തുണയോടെ	-10.8315
▁വെട്ട	-10.8318
▁കരിങ്ക	-10.8322
▁തപാൽ	-10.8327
▁ഭജ	-10.8344
വിജ്ഞാനീയ	-10.8346
▁ചിത്രകല	-10.8352
ിരിക്കുമ്പോൾ	-10.8356
▁പരമാധികാരി	-10.8357
|	-10.8359
▁ഫയർ	-10.836
▁പ്രദേശങ്ങളിലും	-10.836
േസീ	-10.8375
▁നിറമുള്ള	-10.8377
▁ഹരിപ്പാട്	-10.8384
ധർമ്മ	-10.8386
ബന്ധിപ്പിക്കുന്ന	-10.8388
ുകാരുടെ	-10.8389
▁കടലാസ	-10.8392
▁കന്നുകാലി	-10.8394
▁കാംബൈസസ	-10.8394
▁മുനിസിപ്പാലിറ്റ	-10.8394
▁വന്യജീവി	-10.8394
▁സെപ്തംബർ	-10.8394
▁വിമർശിക്ക	-10.8394
▁നിർമ്മാതാവ	-10.8394
▁പ്രധാനവേഷങ്ങള	-10.8394
▁പ്രചരണ	-10.8394
▁പ്രതിപാദിച്ച	-10.8394
▁പസഫിക്	-10.8395
▁ഭൗമ	-10.8395
കളിലൊന്നാണ്	-10.8395
▁ഗ്ലോബ	-10.8395
▁ആർട്ടിക്	-10.8397
▁പാർശ്വ	-10.8397
▁തീർന്ന	-10.8397
▁ധനകാര്യ	-10.8397
load	-10.8399
▁ഇറങ്ങ	-10.8405
▁ബോംബേ	-10.8406
▁ഏറ്റെടുക്കുകയും	-10.8407
▁ഓൾ	-10.841
▁ശോഭ	-10.8414
▁നല്ലൊരു	-10.8414
▁ഗദ്യ	-10.8418
▁കൂടുതലുള്ള	-10.8422
▁പകർത്ത	-10.8423
▁അനുയായികള	-10.8426
▁കളിക്കാരന	-10.8432
▁തെണ്ട	-10.8432
▁തെളിവുകള	-10.8437
ാനപ്പാല	-10.8443
സൗകര്യ	-10.8443
nes	-10.8445
▁ചെയ്യാനുള്ള	-10.8449
▁ഭാഗ്യ	-10.845
▁സമയത്തു	-10.8457
▁ആശാ	-10.8458
സ്ത്രീ	-10.8474
▁പ്രതിനിധാനം	-10.8478
▁ശുപാർശ	-10.8478
▁തിളക്ക	-10.8479
▁അടിയന്തരാവസ്ഥ	-10.8479
▁പോരാളി	-10.8481
▁സുഹൃത്തുക്കള	-10.8485
▁പുതുതായി	-10.8488
that	-10.849
▁അർജ്ജുനന	-10.8498
▁എവിടെ	-10.8507
▁ഊട്ടി	-10.8514
രക്ത	-10.8515
▁തോന്നിയ	-10.8525
സെന്റ	-10.8528
▁പ്രയോഗിക്ക	-10.8536
ഷിപ്പ്	-10.8538
ിനോടൊപ്പം	-10.8544
▁ആസ്തി	-10.8544
കേരളത്തിലെ	-10.8547
ുണ്ടാവുക	-10.855
പള്ളി	-10.8553
▁എർബകാ	-10.8563
▁നീലാംബരി	-10.8563
▁പ്രതിനിധീകരിക്ക	-10.8563
▁യുനെസ്കോ	-10.8563
▁ഭേദഗതി	-10.8563
▁സമ്പൂർണ്ണ	-10.8563
▁സർപഞ്ച്	-10.8563
▁പിന്നാലെ	-10.8563
▁ഹൈഡ്രോ	-10.8563
▁വൻതോതി	-10.8563
▁രാവണ	-10.8564
▁മിക്കപ്പോഴും	-10.8565
▁അന്തിമ	-10.8567
▁സൈമൺ	-10.8568
വാഹിനി	-10.8569
▁ഖഗോള	-10.857
▁അതുവഴി	-10.857
▁പ്രിയപ്പെട്ട	-10.8573
▁ഓസ്കാ	-10.858
▁വേറെ	-10.8586
▁Re	-10.8594
▁കണ്ടെടുത്ത	-10.8599
▁പെണ്ണ	-10.8604
ാവളം	-10.8605
ബാങ്ക	-10.8619
ബാധിത	-10.8619
▁സംഗീതസംവിധായക	-10.8626
പറമ്പ്	-10.8636
▁3000	-10.8646
പ്രാണി	-10.8646
തുരശ്രകിലോമീറ്റർ	-10.8648
▁പങ്കുവഹിച്ച	-10.8648
▁അക്ഷാംശ	-10.8648
▁രാമചന്ദ്രൻ	-10.8648
▁ചുവപ്പ്	-10.8649
▁പരിഗണന	-10.8649
▁ഡിവിഷന	-10.865
▁മഗധ	-10.8651
▁അധികാരമേറ്റ	-10.8651
▁പിടികൂട	-10.8652
▁ക്വിറ്റ	-10.8657
▁1921	-10.8657
▁1914	-10.8657
നുശേഷം	-10.8661
▁തിന്ന	-10.8668
▁ശബര	-10.8671
▁കയറ്റി	-10.8673
▁നേർത്ത	-10.8673
▁കാര്യക്ഷമ	-10.8674
▁വിജയകരമായി	-10.8679
▁1500	-10.8681
▁പ്രദേശങ്ങളിലെ	-10.8701
▁ഹൗസ	-10.8704
▁നൂറ്റാണ്ടുകളിൽ	-10.8708
▁ഉണ്ടെന്ന	-10.871
ുകയുള്ളു	-10.8714
മുൻപ	-10.8723
▁മദീനയിലെ	-10.8724
▁നിരീക്ഷിച്ച	-10.8735
▁വിപരീത	-10.8735
▁സൂനഹദോസ	-10.8735
▁ഹബീബുള്ള	-10.8735
▁ഓർഗനൈസേഷ	-10.8735
▁തിരുവാതിര	-10.8735
▁നവംബറിൽ	-10.8735
▁പ്രിൻസിപ്പ	-10.8735
▁സമ്പർക്ക	-10.8735
▁ശ്രീനിവാസ	-10.8735
▁അഭിഷേക	-10.8735
▁നമുക്ക്	-10.8735
▁വ്യൂഹ	-10.8735
▁സ്കോട്ട്	-10.8735
▁ചുറ്റപ്പെട്ട	-10.8735
▁ശാസ്ത്രനാമം	-10.8739
▁വായ്പ	-10.8739
▁ധാതുക്കളുടെ	-10.874
▁പബ്ലിക്	-10.8741
▁വരുത്തിയ	-10.8745
ence	-10.8746
▁സംസ്ഥാനപാത	-10.8751
▁സമാജ	-10.8755
▁ഒരാളായിരുന്നു	-10.876
കൊണ്ടിരിക്ക	-10.8765
▁ഇസ്രോ	-10.8765
▁തുടങ്ങുകയും	-10.8766
ബാഹ	-10.8777
▁അറിയപ്പെടാ	-10.878
യൂട്ട്	-10.8785
ോക്തി	-10.8802
▁മുന്നില	-10.8805
മലയാള	-10.8808
▁സങ്കീർണ	-10.8817
▁അഭ്യസിച്ച	-10.8822
▁അക്കൌണ്ട	-10.8822
▁ഇത്തരത്തിലുള്ള	-10.8822
▁മുഖർജി	-10.8822
▁സമ്മർദ്ദ	-10.8822
▁കണക്കനുസരിച്ച്	-10.8824
ഒരേയൊരു	-10.8825
▁അന്തരിച്ച	-10.8829
ശാന്തി	-10.8844
▁പുറത്തുവന്ന	-10.8844
▁ചതുപ്പ	-10.8844
▁ലിയാർ	-10.8845
▁ആയിരം	-10.8856
▁സംവിധായക	-10.8857
oli	-10.8863
▁പരാമർശിച്ച	-10.8879
ഗ്രൂപ്പ	-10.8879
▁വെണ്ണ	-10.8879
പ്പൊടി	-10.8885
പ്പോയ	-10.8886
കൃഷ്ട	-10.8899
▁അംഗീകരിക്കുന്ന	-10.89
▁നേവി	-10.89
list	-10.8901
ുറുമ്പ	-10.8909
▁ആംഗലേയ	-10.8909
▁കൊടുങ്ങല്ലൂർ	-10.8909
▁ഡുറാന്റ	-10.8909
▁സർപഞ്ചാണ്	-10.8909
▁കടലിടുക്ക	-10.8909
▁ജനസാന്ദ്രത	-10.8909
▁വിശിഷ്ട	-10.8909
▁ഉപജീവന	-10.8909
▁വൈവിധ്യ	-10.8909
▁അലാസ്ക	-10.8909
▁നിമിഷ	-10.8909
▁റദ്ദാക്ക	-10.891
▁ബിരുദാനന്തര	-10.8911
▁പ്രാർഥന	-10.8911
▁പഴക്കം	-10.8915
▁രാജകുടുംബ	-10.8915
▁ഷഹീ	-10.8915
നുകൂല	-10.8916
▁നീളമുണ്ട്	-10.8919
▁വേദാന്ത	-10.8922
▁ഭാരതപ്പുഴ	-10.8923
▁മലബാറിലെ	-10.8923
തോടുകൂടി	-10.894
▁നല്കുന്ന	-10.895
മത്സ്യ	-10.8968
▁അവശിഷ്ട	-10.8973
▁ഭാഷകളിലും	-10.8975
▁ഒരാളായ	-10.8979
▁ചവിട്ട	-10.898
കിഴക്ക	-10.8989
▁അഭിവൃദ്ധി	-10.8998
▁കോർപ്പറേഷൻ	-10.8998
▁അസംബ്ലി	-10.8998
▁കൽക്കരി	-10.8998
▁മുഖേന	-10.8998
size	-10.8998
▁പലയിടത്തു	-10.8999
▁വാങ്ങിയ	-10.8999
▁സഹകരിച്ച	-10.8999
▁ജബൽ	-10.8999
▁തോൽപ്പിച്ച	-10.9
▁റൺസ	-10.9002
▁ബാലസാഹിത്യ	-10.9004
▁ചരിത്രപരമായ	-10.9006
▁പ്രാരംഭ	-10.9007
▁ബീച്ച്	-10.9009
▁ധാക്ക	-10.9011
wl	-10.9014
പ്പോലും	-10.9026
▁ബ്രഹ്മാവ	-10.9028
കുറഞ്ഞ	-10.9033
▁കനാല	-10.9034
▁റണ്ണ	-10.9046
▁ആകർഷിക്ക	-10.9048
വളർച്ച	-10.9058
▁പ്രവാസ	-10.9058
▁നീങ്ങുന്ന	-10.9059
form	-10.9059
▁കിഴക്കുഭാഗത്ത	-10.9071
▁നിർദ്ദേശിക്ക	-10.9074
▁ചാമ്പ്യൻ	-10.9082
ൊന്തച	-10.9083
ight	-10.9083
▁കോർപ്പറേഷന	-10.9087
▁പ്രസാധക	-10.9087
▁ആധികാരിക	-10.9087
▁ദാരിദ്ര്യ	-10.9087
▁ഭദ്രകാളി	-10.9087
▁ഛത്തീസ്	-10.9087
▁സമകാലിക	-10.9087
▁സ്ക്വാഡ	-10.9087
ഭ്രഷ്ട	-10.9087
▁അവശേഷിക്കുന്ന	-10.9087
▁കുറ്റവാളി	-10.9087
▁മാതൃഭൂമി	-10.9088
▁അറഫാത്ത	-10.9088
▁പരിഷ്കരണ	-10.9089
▁പിറവി	-10.9089
▁ഏർപ്പെടുത്ത	-10.9091
▁ശാസ്ത്രശാഖ	-10.9093
▁ഉദ്യോഗസ്ഥര	-10.9094
▁ഹറം	-10.9097
▁ലോകയുദ്ധ	-10.9099
▁ഇബ്നു	-10.9104
▁കുടിയേറ	-10.9104
സമതല	-10.911
കളോടു	-10.912
ുവരുന്നത്	-10.912
▁മങ്ങിയ	-10.9122
ated	-10.9122
▁രഞ്ജി	-10.9127
▁അക്ഷരങ്ങളെ	-10.9134
വികാസ	-10.9138
ലക്ഷണ	-10.9158
നിലവാര	-10.9159
act	-10.9167
▁Na	-10.9168
▁ഇസ്രയേൽ	-10.9177
▁കാഠിന്യ	-10.9177
▁നിർണ്ണായക	-10.9177
▁നിർവ്വഹിക്ക	-10.9177
▁ഫൗണ്ടേഷ	-10.9177
▁ശസ്ത്രക്രിയ	-10.9177
▁ഈന്തപ്പഴ	-10.9177
▁പിളർന്ന	-10.9177
▁ഓറഞ്ച്	-10.9177
▁കൂട്ടക്കൊല	-10.9177
▁പ്രസിഡൻസി	-10.9177
▁ജഡ്ജി	-10.9177
ാസൂത്രണ	-10.9178
▁ലഭിയ്ക്ക	-10.9179
▁ദിനോസ	-10.918
മുന്തിരി	-10.9182
▁പിടിച്ചടക്കി	-10.9184
▁നിർദ്ദേശപ്രകാരം	-10.9184
കിട്ടിയ	-10.9194
▁തേടുന്ന	-10.9202
▁തൂണുകള	-10.9208
ുണ്ടോ	-10.9214
▁ഒറ്റപ്പെട്ട	-10.9218
▁ലാന്റ്	-10.9233
ുയർന്ന	-10.924
സ്രോതസ്സ	-10.924
▁രൂപപ്പെടുത്തിയ	-10.9249
ുറപ്പ	-10.926
കവച	-10.9266
നിക്ഷേപ	-10.9267
▁ആയിരക്കണക്കിന	-10.9268
▁നാടുകടത്ത	-10.9268
▁പൗരാണിക	-10.9268
▁ആപേക്ഷിക	-10.9268
▁ഹനുമാൻ	-10.9268
▁ഹുസൈൻ	-10.9268
▁കോൺക്രീറ്റ	-10.9268
▁സാംഖ്യ	-10.9268
▁മെച്ചപ്പെടുത്ത	-10.9269
▁യഥാ	-10.9269
▁നശിപ്പിച്ച	-10.9269
▁മംഗൽ	-10.927
▁എഞ്ചിനീയറിംഗ്	-10.9271
▁രക്ഷപെട	-10.9271
▁ജപ്പാനിലെ	-10.9271
ധർമ	-10.9277
സൂക്ത	-10.9285
▁മുഖ്യമായും	-10.9285
▁കഴിയാത്ത	-10.9286
▁നശിച്ച	-10.9288
▁കോഴിക്കോട്ട	-10.9292
▁സംജ്ഞ	-10.9293
▁രീതിയിലാണ്	-10.9297
▁വാക്കുകള	-10.9305
▁ഇന്ത്യയിലേക്ക	-10.9314
ton	-10.9322
▁അനുയോജ്യ	-10.9323
ോണിക്	-10.9324
▁പരിശ്രമ	-10.936
▁ഇറക്കുമതി	-10.936
▁ടാസ്മേനിയ	-10.936
▁ഏപ്രിലിൽ	-10.936
▁ഫെസ്റ്റിവ	-10.936
▁ലോറൻസ്	-10.936
▁സകാത്ത്	-10.936
▁അച്ചടിച്ച	-10.936
▁ബച്ചൻ	-10.9362
▁നയിക്കുന്ന	-10.9364
▁അബ്ദുള്ള	-10.9364
പൂത്താലി	-10.9366
▁നവീന	-10.9367
▁ഫണ്ട	-10.9371
▁ശേഷമുള്ള	-10.9372
▁തീരദേശ	-10.9378
▁ഇതിലൂടെ	-10.9379
▁സംഗ്രഹ	-10.9379
▁പ്രായമുള്ള	-10.9382
▁പറയാറുണ്ട്	-10.9389
െപ്പറ്റി	-10.9394
േഴ്	-10.9394
പ്രകാരമാണ്	-10.9403
ിപ്പിക്കാൻ	-10.9411
▁ഒറീസ	-10.9412
▁നീട്ടി	-10.9416
▁കൊല്ലപ്പെട്ട	-10.9417
▁കുടിയ	-10.9424
സന്ദേശ	-10.9427
▁വയറ	-10.9429
▁ആവശ്യങ്ങൾക്ക	-10.943
▁രക്ഷപ്പെട	-10.9432
▁നിലനിൽക്ക	-10.9443
333	-10.9451
▁കംബോഡിയ	-10.9452
▁ലുധിയാന	-10.9452
▁അജ്ഞാത	-10.9452
▁അർബുദ	-10.9452
▁ആകർഷിച്ച	-10.9452
▁ആശ്രയിക്കുന്ന	-10.9452
▁ഈഡിപ്പസ്	-10.9452
▁ചിന്താഗതി	-10.9452
▁തന്മൂലം	-10.9452
▁പൊതിഞ്ഞ	-10.9453
▁വാസ്തവ	-10.9453
▁കൽക്കട്ട	-10.9453
▁പത്മശ്രീ	-10.9454
▁മാത്രമെ	-10.9454
▁ടിബറ്റ	-10.9455
▁ആസിഡ	-10.9455
▁പൊന്നാനി	-10.9456
▁സെൻസ	-10.9457
▁പൊള്ള	-10.946
▁സമയത്താണ്	-10.9461
ഗഢ്	-10.9463
▁ഗ്രന്ഥശാല	-10.9464
▁അതുവരെ	-10.947
▁മറ്റെല്ലാ	-10.9476
കയറ	-10.9476
ഓടെ	-10.9482
▁പേയി	-10.9483
ദ്ദേശിക്കുന്ന	-10.9487
▁ജാഥ	-10.949
▁ഹബിളിന	-10.9497
▁ആവരണ	-10.95
▁ഹംസ	-10.9503
വൈഷ്ണവ	-10.9511
▁വ്യാജ	-10.9515
ഭിപ്രായ	-10.9523
▁മംഗല	-10.954
▁ടാക്സ	-10.954
▁അന്തർദേശീയ	-10.9546
▁കൂട്ടിച്ചേർക്ക	-10.9546
▁ദുര്യോധന	-10.9546
▁ആന്ധ്രാപ്രദേശ	-10.9546
▁മാതാപിതാക്കള	-10.9546
▁നിത്യഹരിത	-10.9546
▁സുലഭ	-10.9546
▁സാദ്ധ്യത	-10.9546
▁മാനേജ്മെന്റ	-10.9547
▁ജമ്മു	-10.9548
▁സർദാർ	-10.9549
▁ആയുസ്സ	-10.9552
▁കുന്നിൻ	-10.9553
▁കർണ്ണാടകസംഗീത	-10.9558
▁പടർന്നു	-10.9558
▁തനതായ	-10.9561
▁റഹ്മാന	-10.9562
ീകരിക്കുന്ന	-10.9565
▁നേരിയ	-10.9582
▁നസ്രാണികൾ	-10.9585
പ്പോഴേക്കും	-10.9599
ലഭിക്കുകയുണ്ടായി	-10.9601
കല്യാണി	-10.9603
▁നടത്തപ്പെടുന്ന	-10.9608
ദക്ഷിണ	-10.9617
▁ഗിനി	-10.9623
▁പേജ	-10.9636
കർഷക	-10.9637
▁നേരത്തേ	-10.9639
▁അയാളെ	-10.964
▁ഒട്ടനവധി	-10.964
▁ഗുജറാത്ത്	-10.964
▁ചൂണ്ടിക്കാട്ട	-10.964
▁ഉൾക്കടൽ	-10.964
▁നാരായൺ	-10.964
▁പ്രായപൂർത്തി	-10.964
▁പരിണമിച്ച	-10.964
▁പ്രവണത	-10.964
▁സമ്മർ	-10.9641
▁അതീവ	-10.9641
▁അനുഷ്ഠിക്ക	-10.9642
▁പെരിങ്ങ	-10.9642
▁പ്രതാപ	-10.9642
▁നിയോഗിക്ക	-10.9643
▁ഉപദ്വീപ	-10.9645
▁പുത്തൻ	-10.9645
▁വേറിട്ട	-10.9647
▁കമ്മറ്റി	-10.9649
▁1924	-10.9649
▁ദൈവശാസ്ത്ര	-10.9654
ുണ്ടെങ്കിൽ	-10.9658
▁ഖമർ	-10.9661
▁എത്തിച്ച	-10.9665
▁നാദ	-10.967
▁പതിക്കുന്ന	-10.9672
ങ്ങളിലെല്ലാം	-10.9693
▁അഭിപ്രായപ്പെട	-10.9695
▁എഞ്ചിന	-10.9695
വ്യാപക	-10.9698
▁കാണപ്പെട	-10.97
ിനേക്കാൾ	-10.9707
ാസുര	-10.9709
സമ്മേളന	-10.9712
സംരക്ഷണ	-10.9712
വികസന	-10.9712
▁എഴുപത	-10.9719
▁മഴമര	-10.9723
▁അഗസ്ത്യ	-10.9735
▁ജലവൈദ്യുത	-10.9735
▁നരസിംഹ	-10.9735
▁പത്തൊമ്പതാ	-10.9735
▁രക്തസമ്മർദ്ദ	-10.9735
▁ടൂർണമെന്റ	-10.9735
▁സംരക്ഷിത	-10.9735
▁കർശന	-10.9736
▁മത്സ്യബന്ധന	-10.9736
▁മുഴുവനായ	-10.9736
േക്കാളും	-10.9736
▁റസ്സൽ	-10.9736
▁ക്യാപ്റ്റന	-10.9738
▁സ്ഥാനമേറ്റ	-10.974
▁വുഡ്	-10.974
▁1928	-10.9744
▁പുരുഷന്മാർ	-10.9745
ാനുഭവ	-10.9746
▁ഉദാഹരണങ്ങളാണ്	-10.9751
0.2	-10.9765
ിരിക്കുമെന്ന	-10.9768
സഞ്ചയ	-10.9774
▁ഇദ്ദേഹത്തിനു	-10.9782
പരവുമായ	-10.9782
ചണ്ഡ	-10.9787
▁വൈകി	-10.9801
പ്രതിരോധ	-10.9811
▁പച്ചില	-10.9816
ോപനിഷത്ത	-10.9819
▁piercing	-10.9832
▁സെപ്റ്റംബറിൽ	-10.9832
▁ഐശ്വര്യ	-10.9832
▁ഹഖാമനി	-10.9832
▁ഉർദു	-10.9832
▁കാലയളവില	-10.9832
▁കൃഷ്ണപിള്ള	-10.9836
▁വടക്കോട്ട	-10.9837
▁ഒന്നാമത്തെ	-10.984
▁ദുഷ്	-10.9842
▁യൂറോപ്യ	-10.9843
▁1917	-10.9844
▁ബ്രൂസ	-10.9846
▁താഴേക്ക	-10.986
▁വീട്ടിലെ	-10.9873
▁അൻപത	-10.9882
ope	-10.989
▁പിന്മാറ	-10.9899
▁സയൻസ	-10.9907
▁ഒളിച്ച	-10.9922
text	-10.9929
▁സ്പിനോസ	-10.9929
▁രൂപവത്കരിക്ക	-10.9929
▁പലസ്തീൻ	-10.9929
▁ലണ്ടനിലെ	-10.9929
▁വയസ്സുള്ളപ്പോൾ	-10.9929
▁പടയോട്ട	-10.9929
▁പലസ്തീന	-10.9929
▁ജൂണിൽ	-10.9929
▁ദോസ്ത്	-10.9929
▁തിയതി	-10.9929
▁കണക്കുകൂട്ട	-10.993
▁പ്രസിഡണ്ടായ	-10.993
▁ഇൻഡീസ	-10.9931
▁ആരാധിച്ച	-10.9931
രാജാവിന	-10.9932
ത്തിനായുള്ള	-10.9934
▁ഇടവേള	-10.9934
▁സീസൺ	-10.9936
▁വൈക്കം	-10.994
▁ശിൽപ്പ	-10.9947
▁ഷീല	-10.9949
▁അഗ്നിബാധ	-10.9949
▁സ്റ്റാൻഡ	-10.995
▁അന്തര	-10.9954
ുണ്ടായിരുന്നില്ല	-10.9956
ചേർത്ത	-10.997
പഠനത്തിനായി	-10.9984
പടിഞ്ഞാറ	-11.0005
▁പാടിയ	-11.0005
{\	-11.0008
▁കമ്മ്യൂണിസ	-11.0027
▁കമ്യൂണ	-11.0027
▁sasthav	-11.0027
▁ഇംഗ്ളീഷ	-11.0027
▁ബാക്ടീരിയ	-11.0027
▁മുനിസിപ്പൽ	-11.0027
▁ശ്രേഷ്ഠ	-11.0027
▁ഹദീഥ	-11.0027
▁ശിപായി	-11.0027
▁മൂവ്മെന്റ	-11.0027
▁നിയന്ത്രിച്ച	-11.0027
▁ഘടിപ്പിക്ക	-11.0027
▁ശ്വാസ	-11.0028
▁കലാമിന	-11.0028
▁സ്പെയിൻ	-11.003
▁പൊന്തച	-11.0032
പരിപാലന	-11.0032
▁പതിനേഴാം	-11.0033
Port	-11.0033
▁മാർക്കറ്റ	-11.0034
▁1923	-11.0034
ഇതിനിടെ	-11.0035
▁1905	-11.0035
▁ശുഭ	-11.0037
▁ഇവയെല്ലാം	-11.0042
ചിഹ്ന	-11.0059
▁പെറു	-11.007
ാനാവില്ല	-11.008
▁ഷാർജ	-11.0084
ാട്ടം	-11.0094
സഹോദര	-11.0102
▁പറന്ന	-11.0109
ynasty	-11.0126
▁ഐക്യനാടുകൾ	-11.0126
▁ഒപ്റ്റിക്ക	-11.0126
▁ഫിലിപ്പീൻസ	-11.0126
▁സഹ്യാദ്രി	-11.0126
▁തിയേറ്ററ	-11.0126
▁നേപ്പാൾ	-11.0126
▁പാർവ്വതി	-11.0126
ാടിസ്ഥാനത്തിൽ	-11.0126
▁വർധിപ്പിക്ക	-11.0126
▁ഓഡിയോ	-11.0126
▁തകരാറ	-11.0126
▁ex	-11.0126
ങ്ങളാണുള്ളത്	-11.0127
ിട്ടുണ്ടെന്ന	-11.013
▁മോചന	-11.0132
▁ഉപാധി	-11.0134
▁പ്രേം	-11.0134
▁1933	-11.0135
▁ഇറക്ക	-11.0136
▁വ്യാപിച്ചുകിട	-11.0139
▁അജിത്	-11.0144
പ്പിള്ളി	-11.0146
കാർബണ	-11.0156
▁ഹെക്ട	-11.0161
▁പരാമർശിക്കപ്പെട	-11.017
ൊന്നുമില്ല	-11.0178
▁ചരിവ	-11.0179
▁പുലർത്തിയിരുന്ന	-11.0184
▁സാക്ഷരത	-11.0189
ിരിന്നു	-11.02
എന്നിവരായിരുന്നു	-11.0208
പദാർഥ	-11.021
സ്നേഹ	-11.0212
യിലുണ്ടായിരുന്ന	-11.0219
▁അങ്കമാലി	-11.0226
▁കന്ദഹാറ	-11.0226
▁ദ്രൗപദി	-11.0226
▁ഭൂഗർഭ	-11.0226
▁വാഗ്ദാനം	-11.0226
▁വിയറ്റ്നാം	-11.0226
▁തമിഴ്നാട്ടിലെ	-11.0226
▁മാപ്പിള	-11.0226
▁മിസൈൽ	-11.0226
▁മഹാബലി	-11.0226
▁ഫാർമ	-11.0226
ശൃംഗ	-11.0227
▁ആകാശവാണി	-11.0227
▁മെഡിയ	-11.0229
▁ദ്വീപസമൂഹ	-11.023
▁ഉറപ്പിക്ക	-11.0231
▁ശിവലിംഗ	-11.0231
▁വിദേശകാര്യ	-11.0231
▁പെട്രോ	-11.0235
▁വേണ്ടത്ര	-11.0237
ഭ്രമ	-11.026
▁സംസാരിച്ച	-11.0269
▁റിസർവ്	-11.0279
▁സലഫ	-11.028
▁ഗോപാലന	-11.029
ർജ്ജുന	-11.0303
പ്രാധാന്യമുള്ള	-11.0309
പരീക്ഷ	-11.0315
▁അദ്ദേഹത്തിന	-11.032
▁ഈജിപ്ഷ്യൻ	-11.0327
▁ഔപചാരിക	-11.0327
▁ബോളിവുഡ	-11.0327
▁വൃത്തമഞ്ജരി	-11.0327
▁പ്രൊഡക്ഷൻ	-11.0327
▁വടക്കാഞ്ചേരി	-11.0327
▁കിലോഗ്രാം	-11.0327
▁സമന്വയ	-11.0327
▁സുരേഷ്	-11.0327
▁തുഗ്ലക്	-11.0327
▁നമ്പ്യാർ	-11.0328
സംബന്ധിയായ	-11.0328
▁തടവിലാക്ക	-11.0328
ധ്യാത്മിക	-11.0328
▁ബാല്യകാല	-11.0329
▁പടിഞ്ഞാറോട്ട	-11.0329
▁എനിക്കു	-11.0334
▁പ്രസക്ത	-11.0334
▁ഡാർക്ക്	-11.034
▁തറവാട	-11.0347
▁1919	-11.035
▁നിരാശ	-11.0353
▁തിരിച്ചുവര	-11.0364
▁ലയിക്ക	-11.0415
▁കൃഷിചെയ്യുന്ന	-11.0421
▁പ്രാവർത്തിക	-11.0429
▁ഇംഗ്ലിഷ്	-11.0429
▁നൂറുകണക്കിന	-11.0429
ദൃഷ്ടി	-11.0429
▁മാർപാപ്പ	-11.0429
▁ശൈഖ്	-11.0429
South	-11.0429
▁തെക്കോട്ട്	-11.0429
▁ഏതൻസ്	-11.0429
▁ശ്വാസകോശ	-11.0429
▁ശമ്പള	-11.0429
▁ആകൃഷ്ടനാ	-11.0442
▁ആവശ്യപ്പെട	-11.0443
▁അക്കൗണ്ടിംഗ	-11.0456
▁പിന്തുടര	-11.0461
കുറിച്ചു	-11.0467
▁നിയമപരമായ	-11.0467
തുടർന്ന്	-11.0476
ശേഷമാണ്	-11.0489
▁വിഘട	-11.0499
▁പരാജയപ്പെടുത്ത	-11.0505
നാരായണ	-11.0513
നേതാക്കൾ	-11.0516
വിദഗ്ദ്ധ	-11.0516
ഭക്ഷണ	-11.0526
▁പിടിച്ചടക്ക	-11.0528
▁അബൂബക്	-11.053
▁യൂനിവേഴ്	-11.0532
▁പെട്രോളിയം	-11.0532
▁ഉത്തരാഖണ്ഡ	-11.0532
▁പൂന്തോട്ട	-11.0532
▁പ്രതികൂല	-11.0532
▁മധ്യപ്രദേശ	-11.0532
▁ബ്യൂറോ	-11.0532
▁ആർട്സ്	-11.0532
▁ലഭ്യത	-11.0532
▁ദമ്പതികള	-11.0532
▁രാജകുമാരി	-11.0532
▁നിലവിലിരുന്ന	-11.0533
▁ഷാജഹാന്റെ	-11.0533
മീമാംസ	-11.0533
▁അഞ്ചാമത്തെ	-11.0534
▁വിധേയമാക്ക	-11.0537
▁ആന്തരിക	-11.0537
▁ബ്ളോക്കി	-11.0539
▁കോളജ്	-11.0542
▁ഇലക്ട്രോൺ	-11.0543
▁വിശ്വാസികള	-11.0547
▁പല്ലു	-11.0549
▁ചട്ടക്കൂട	-11.0565
▁ബംഗാള	-11.0567
▁സന്യാസ	-11.057
▁ഹരപ്പ	-11.0586
ture	-11.06
ുന്നതിനുവേണ്ടി	-11.0615
▁ലാർവ	-11.0622
വിപ്ലവ	-11.0622
▁ശൈത്യ	-11.0625
▁വിവക്ഷിക്ക	-11.0629
ത്തോഴ	-11.063
▁ആതിഥേയ	-11.0636
▁ഇബ്രാഹിം	-11.0636
▁ദിലീപ്	-11.0636
▁ആഗസ്ത്	-11.0637
▁ത്രികോണ	-11.0637
സെപ്റ്റ	-11.0638
▁ഗൈഡ	-11.0641
▁ഏകാധിപത്യ	-11.0641
▁ഡോളറ	-11.0643
▁സ്റ്റേറ്റ്സ	-11.0644
▁നിഷേധിക്ക	-11.0645
▁കുരുക്ഷേത്ര	-11.0645
▁1944	-11.0646
▁മോസ്കോ	-11.0649
▁ശിഷ്യനായ	-11.0655
▁സൂചിപ്പിച്ച	-11.0662
▁സർവ്വീസ	-11.0667
ിക്കുമെന്ന	-11.0671
അദ്ദേഹത്ത	-11.0676
▁ആകർഷിക്കുന്ന	-11.0682
▁മരണപ്പെട്ട	-11.0687
▁കഴിക്കുന്ന	-11.0688
ത്തോടനുബന്ധിച്ച	-11.071
സ്വഭാവമുള്ള	-11.0713
▁അയയ്ക്ക	-11.0721
സാങ്കേതിക	-11.0728
▁അടിയന്തര	-11.074
ചൈതന്യ	-11.0741
▁Kingdom	-11.0741
▁ലാറ്റിനമേരിക്ക	-11.0741
▁പര്യവേക്ഷണ	-11.0741
▁സന്ദർശക	-11.0741
▁ചമ്മന്തി	-11.0741
▁തച്ചോളി	-11.0741
▁ബ്രസീൽ	-11.0741
▁ഘടികാര	-11.0741
▁രാജകീയ	-11.0741
▁പ്രമേഹ	-11.0742
▁കൈമാറ്റം	-11.0742
▁അധീന	-11.0742
▁അറബിക്കടലി	-11.0742
ദ്രോഹ	-11.0743
▁അഗസ്റ്റ	-11.0743
▁മാലിന്യ	-11.0743
▁ദുർബല	-11.0744
▁വിസ്മയ	-11.0744
▁നിർത്തലാക്ക	-11.0744
▁പ്യൂ	-11.075
▁ഉപരോധ	-11.0751
▁ലിബിയ	-11.0754
▁ക്രമീകരിക്ക	-11.077
▁കിണറ	-11.0796
സിനിമ	-11.0802
▁എന്തിനേയ	-11.0805
▁എൻജിന	-11.0807
▁മരുമക	-11.0811
തായാലും	-11.0822
തറവാട്ടി	-11.0823
▁നീണ്ടുനിന്ന	-11.0835
ചൈന	-11.0841
സെക്കൻഡ	-11.0842
▁പാരീസി	-11.0843
▁ഞാറ്റുവേല	-11.0848
▁ടെർമിന	-11.0848
▁മാഡ്രിഡ	-11.0848
ാവശിഷ്ട	-11.0848
▁കായംകുളം	-11.0848
▁നെബുല	-11.0848
▁പ്രേരണ	-11.0848
▁അർജുന	-11.0848
▁രാജാക്കന്മാരുടെ	-11.0848
▁മാദ്ധ്യമ	-11.0848
▁തണുത്ത	-11.0848
▁വമ്പിച്ച	-11.0848
▁ഒതുങ്ങി	-11.0848
▁നന്നേ	-11.0848
▁അതിജീവിക്ക	-11.0849
▁ഓപ്പറേഷൻ	-11.085
▁ഡച്ചുകാര	-11.0851
▁നായനാർ	-11.0851
▁ലഭ്യമല്ല	-11.0852
▁ധാതുക്കൾ	-11.0856
ലധിക	-11.0858
▁വിജയനഗര	-11.0858
▁രൂപവത്കരണ	-11.0859
▁പാട്ടുകള	-11.0866
▁സിന്ധ്	-11.0867
പ്പിടിച്ച	-11.0883
ിഷ്ടം	-11.0883
▁കൂടിയാട്ട	-11.089
പ്രദേശം	-11.0897
കുരുണ	-11.092
▁പാണ്ഡേ	-11.0921
▁ജീവനക്കാര	-11.0922
▁ആസ്ഥാനമാക്കി	-11.0943
▁സ്ഥാ	-11.0945
സൈന്യ	-11.095
▁ഛായാഗ്രഹണ	-11.0955
▁വെവ്വേറെ	-11.0955
▁മെനസിസ്	-11.0955
നിർവഹണ	-11.0955
▁ആശ്വാസ	-11.0955
▁ബാദ്ധ്യത	-11.0955
▁പയ്യന്നൂ	-11.0956
▁പരുന്ത	-11.0956
▁മിസൈല	-11.0957
▁ഇംഗ്ലീഷുകാർ	-11.0957
▁ഇറാനിയൻ	-11.0957
▁പ്രസിഡണ്ട്	-11.0958
▁ശ്രീനാരായണ	-11.0958
▁കലണ്ടറ	-11.0958
▁കൂടിച്ചേർന്ന	-11.0959
സങ്കീർണ്ണ	-11.0959
▁വേണു	-11.096
▁പരിശോധിച്ച	-11.096
▁ചാന്ദ്	-11.0976
▁എന്തെങ്കിലു	-11.098
▁ഗാനങ്ങൾക്ക	-11.0989
▁പ്ലേറ്റ	-11.1
▁നന്മ	-11.1004
▁സിദ്ധിച്ച	-11.1007
ത്താവള	-11.1024
പ്രവാചക	-11.1053
▁ആഴ്സണൽ	-11.1064
▁ഫുട്ബോള	-11.1064
▁ലിമിറ്റഡ	-11.1064
▁ലോകമെമ്പാടും	-11.1064
▁ഹിമാചൽ	-11.1064
▁മാനദണ്ഡ	-11.1064
▁മാർക്സിസ്റ്റ്	-11.1064
▁രണ്ടാമത്തേത	-11.1064
▁ഫോട്ടോഗ്രാഫ	-11.1064
▁ഹരിഹരൻ	-11.1064
▁ഓസ്ട്രിയ	-11.1064
▁പെൻഷൻ	-11.1064
▁മലനിരകൾ	-11.1064
▁ശാസന	-11.1064
▁കൊഴുപ്പ	-11.1065
▁അധികാരത്തിലേറി	-11.1065
വൽക്കരിക്ക	-11.1065
▁ജെർമാനി	-11.1066
▁ഹെൻറി	-11.1066
▁രൂപംകൊള്ളുന്ന	-11.1068
▁ഹിന്ദുസ്ഥാൻ	-11.1069
പ്രത്യക്ഷപ്പെട്ട	-11.107
▁ഓക്സിജന	-11.1074
▁ഉറക്ക	-11.1083
▁അറസ്റ്റു	-11.1086
▁അവലംബ	-11.1101
സാന്ദ്ര	-11.1102
ടൈപ്പ്	-11.1104
▁ഡോക്ടറേറ്റ	-11.1125
വളർത്ത	-11.1127
▁അവലംബിച്ച	-11.1137
▁ഗവണ്മെന്റ	-11.1162
വ്യത്യാസ	-11.1165
▁തെലുങ്ക്	-11.1174
▁പ്രഗല്ഭ	-11.1174
▁പ്രൈമറി	-11.1174
▁ബഹാദൂർ	-11.1174
▁ഹോളിവുഡ	-11.1174
▁സന്ന്യാസ	-11.1174
▁ഉറപ്പുവരുത്ത	-11.1174
കോയിത്തമ്പുരാ	-11.1174
▁മൗലിക	-11.1174
▁പച്ചക്കറി	-11.1174
▁രഘു	-11.1174
▁നിലവിലെ	-11.1175
നുസൃതമായി	-11.1175
▁സാധ്യമല്ല	-11.1175
port	-11.1175
▁വകഭേദ	-11.1176
ിലൊന്നാണിത്	-11.1179
▁ഏഴാമ	-11.1185
▁ഹറമ	-11.1191
ുതുടങ്ങി	-11.1191
ൈറ്റിസ്	-11.1192
▁നിശ്ചയ	-11.1193
▁ഖുത്ബ	-11.1195
▁നടുവില	-11.1259
▁ബന്ധപ്പെടുത്തി	-11.1263
▁വായനക്കാര	-11.1268
▁വിസ്തൃത	-11.1268
യോഗ്യമായ	-11.1268
മീഡിയ	-11.128
▁ഇതിവൃത്തം	-11.1285
▁ഋഷഭ	-11.1285
▁ദാരിയൂസ	-11.1285
▁മണവാട്ടി	-11.1285
▁പത്മനാഭ	-11.1285
▁സ്വീകാര്യ	-11.1285
നീലക്കടുവ	-11.1285
▁വള്ളംകളി	-11.1285
▁മോട്ടോർ	-11.1285
▁ഹിന്ദുസ്ഥാനി	-11.1285
▁പവിത്ര	-11.1285
▁തിരുവോണ	-11.1286
▁ദഹന	-11.1286
ound	-11.1287
▁വിഭാവന	-11.1287
▁പ്രാണികള	-11.1288
ചിട്ടപ്പെടുത്തിയ	-11.129
▁പുരസ്ക്കാര	-11.129
▁നെതർല	-11.1293
▁ഹദീസ	-11.1293
ിട്ടുണ്ടെങ്കിലും	-11.1295
▁പ്രചാരത്തിലുണ്ട	-11.1295
സംവിധായകന	-11.1295
▁ആചരിക്ക	-11.1299
രുതെന്ന	-11.1302
നിർമിതി	-11.1304
▁his	-11.1305
▁വത്തിക്കാ	-11.1311
▁ഡാളസ	-11.1313
▁രാജിവെച്ച	-11.1332
▁രചിക്ക	-11.1336
ത്തിനനുസരിച്ച	-11.1347
▁പ്രവർത്തനമാരംഭി	-11.136
ുപോന്നു	-11.1384
▁ആട്ടക്കഥ	-11.1397
▁മസ്ജിദുന്നബവി	-11.1397
gmites	-11.1397
ാന്വേഷണ	-11.1397
▁ദാർശനിക	-11.1397
▁പണിതീർത്ത	-11.1397
▁രേവതി	-11.1397
▁സെക്കണ്ടറി	-11.1397
▁ഏലംകുളം	-11.1397
▁ദൃഢ	-11.1397
▁കടലുണ്ടി	-11.1397
▁പ്രചരിപ്പിക്ക	-11.1397
▁പാണ്ഡ്യ	-11.1397
▁മിഷണറി	-11.1397
▁ആഗോളവത്കരണ	-11.1397
▁വഴിത്തിരിവ	-11.1398
▁തുരുമ്പ	-11.1398
▁കൽക്കത്ത	-11.14
▁മരണാനന്തര	-11.1401
▁ഗോപാൽ	-11.1402
▁ക്രമീകരിച്ച	-11.1402
ന്തവിട	-11.1403
കൊട്ടാര	-11.1418
▁വ്യതിരിക്ത	-11.1437
▁തെരഞ്ഞെടുപ്പി	-11.1449
▁പരമാധികാര	-11.145
ുൾപ്പെട്ട	-11.1461
▁പൊതുജനങ്ങൾക്ക	-11.1465
▁ഫ്ള	-11.1468
ാകുമ്പോൾ	-11.1471
▁പടിഞ്ഞാറുഭാഗത്ത	-11.1484
▁പുരുഷന്മാര	-11.149
െന്നപോലെ	-11.1494
നവതി	-11.15
ചലച്ചിത്ര	-11.1504
വ്യഞ്ജന	-11.1506
College	-11.1511
▁അതുകൊണ്ടുതന്നെ	-11.1511
▁നാളികേര	-11.1511
▁യാക്കോബായ	-11.1511
▁ഹഖാമനീഷ	-11.1511
▁മദിരാശി	-11.1511
▁വഴിയൊരുക്ക	-11.1511
idae	-11.1511
▁ശ്യാം	-11.1512
▁നിർവചന	-11.1513
▁പട്ടേൽ	-11.1516
▁മൗര്യ	-11.1517
▁സാധനങ്ങൾ	-11.1517
▁വീട്ടിലേക്ക	-11.154
കൊച്ചി	-11.1604
▁പേരിന	-11.161
ഗവേഷണ	-11.1623
▁ഉരുണ്ട	-11.1623
ഹൃദയ	-11.1625
▁ആറന്മുള	-11.1626
▁ഉടമസ്ഥതയിലുള്ള	-11.1626
▁ചന്ദ്രശേഖർ	-11.1626
▁ഡെമോക്രാറ്റിക്	-11.1626
▁ഫാക്ടറി	-11.1626
▁ബൃഹത്	-11.1626
▁മാവേലിക്കര	-11.1626
▁രാജഗോപാലാചാരി	-11.1626
▁ഇസ്രയേലി	-11.1626
▁ഒൻപത്	-11.1626
▁നിർവചിക്ക	-11.1626
▁ലോകവ്യാപകമായി	-11.1626
▁ഇല്ലിനോയി	-11.1626
▁തിയേറ്റർ	-11.1626
▁കേരളസംസ്ഥാന	-11.1626
▁ഉറവിട	-11.1626
▁ഗായത്രി	-11.1626
▁എന്നിവയാണവ	-11.1626
▁സ്പീഷിസ	-11.1626
▁ഏതൊരു	-11.1626
ത്തീരുകയും	-11.1626
▁വാസ്തുശില്പ	-11.1626
▁നിരൂപണ	-11.1627
▁ചുരുക്കപ്പേര	-11.1627
▁ഖത്തർ	-11.1628
▁ശതമാനത്തോളം	-11.1628
▁ആലേഖന	-11.1628
▁സർജന്റ	-11.1629
▁രജപുത്ര	-11.1629
▁അച്ഛന്റെ	-11.163
▁യൂണിയന്റെ	-11.1631
▁വീശുന്ന	-11.1635
തെരഞ്ഞെടുക്കുന്ന	-11.1637
പടയാളി	-11.1672
▁മുന്നേറ	-11.1679
▁മ്യൂസിക്	-11.1691
ുണ്ടാവുന്ന	-11.1704
▁സ്വന്തമായ	-11.171
ുമെന്നാണ്	-11.1711
ക്ഷോഭ	-11.1713
▁അയിര	-11.1717
ുപയോഗിക്ക	-11.1719
▁അഡ്വ	-11.1719
▁കേന്ദ്രകഥാപാത്ര	-11.1738
plant	-11.1742
▁വിശദീകരിച്ച	-11.1742
▁ക്ഷത്രിയ	-11.1742
▁വർത്തമാന	-11.1742
▁പിന്നോക്ക	-11.1742
വാലാട്ടി	-11.1742
▁ആവശ്യകത	-11.1744
▁ഉപഭോഗ	-11.1744
▁രണ്ടെണ്ണ	-11.1745
▁ഭൂപട	-11.1746
▁രേഖാംശ	-11.1746
▁മൂലധന	-11.1747
▁ഇറാൻ	-11.1748
ിനെക്കാൾ	-11.1762
▁സൂറത്ത	-11.178
▁ഉപവിഭാഗ	-11.1808
കളുടേ	-11.1816
▁വാടക	-11.1835
▁പതിനേഴ	-11.1853
▁അഭിമുഖീകരിക്ക	-11.1853
▁ഊർജ	-11.186
▁ഒഡീസ്സസ	-11.186
▁കാശ്മീരി	-11.186
▁നാടുവാഴി	-11.186
▁ഷാരൂഖ്	-11.186
▁ദൌത്യ	-11.186
▁മിഥുന	-11.186
▁ന്യൂക്ലിയ	-11.186
▁പ്രതിപാദ്യ	-11.186
▁വടക്കുന്നാഥ	-11.186
▁സാമന്ത	-11.1861
▁രണ്ടാമന്റെ	-11.1862
ഭാഗവത	-11.1862
▁ഗസ്നി	-11.1863
▁ചെലവഴിച്ച	-11.1864
▁ഹംപി	-11.1866
▁ഇടത്തര	-11.1868
േണ്ടിയിരുന്ന	-11.1945
ടനീളം	-11.1951
▁പെയിന്റ	-11.1968
വസിച്ച	-11.1975
▁അന്വേഷിക്ക	-11.1979
▁പ്ലൂട്ടോ	-11.1979
▁ഉത്തരധ്രുവ	-11.1979
▁പ്രാമുഖ്യം	-11.1979
▁മഅ്ദി	-11.1979
▁ശിരഛേദ	-11.1979
▁പെർകിൻ	-11.1979
ാരോഹണ	-11.1979
▁ഇറാഖ്	-11.1979
▁ഫ്രാങ്ക്	-11.1979
▁മോചിപ്പിക്ക	-11.1979
▁മോസില്ല	-11.1979
▁തപസ്സ	-11.1982
▁സിഗ്നല	-11.1982
▁സിഥിയ	-11.1983
▁ആവേശ	-11.1983
▁ആദർശ	-11.1996
▁എല്ലാവർക്കു	-11.2
▁വരുമെന്ന	-11.2005
രംഗത്തേക്ക	-11.2016
▁പേരിലറിയപ്പെട	-11.2022
പറമ്പിൽ	-11.2031
▁മദ്രസ	-11.2037
ava	-11.2038
ുറപ്പിക്ക	-11.2047
▁കത്തിച്ച	-11.2052
▁കൃത്യ	-11.2079
ോടൊപ്പമ	-11.2097
▁നിയമസഭയിലേക്ക	-11.2098
കളോടുകൂടിയ	-11.2099
▁ഉസ്താദ്	-11.2099
▁നിരീക്ഷക	-11.2099
▁മിയാസാക്കി	-11.2099
▁രാജരാജവർമ്മ	-11.2099
▁വിളവെടുപ്പ	-11.2099
▁Pandya	-11.2099
▁ഇതിനിടയിൽ	-11.2099
▁അകമ്പടി	-11.2099
▁അവശേഷിച്ച	-11.21
▁റെസിഡ	-11.21
▁മൾട്ടി	-11.21
▁വർധിച്ച	-11.21
▁ഡ്രൈവ	-11.2101
തൊഴിലാളി	-11.2102
ഭക്തി	-11.2102
▁പതിമൂന്നാ	-11.2102
▁വർത്തിക്കുന്ന	-11.2103
▁രജിസ്റ്റ	-11.2105
tory	-11.2108
വിനിയോഗ	-11.2112
▁പ്ലാസ്മ	-11.212
▁അമീറ	-11.2122
ാകുമെന്ന	-11.2123
▁റ്റാഗ	-11.2124
▁വാർഡുകള	-11.214
▁അണ്ണാ	-11.2143
▁സഹോദരന്മാര	-11.2161
ഭോജ	-11.2164
ിപ്പിക്കാന	-11.22
▁ഇംഗ്ലീഷുകാര	-11.2203
▁കൂട്ടിയിടി	-11.2205
▁നിയമിതനായി	-11.2212
ിലുൾപ്പെടുന്ന	-11.222
▁അബുദാബി	-11.2221
▁ഡോക്യുമെന്ററി	-11.2221
▁വിവേചന	-11.2221
▁പതിനാലാം	-11.2221
▁വ്യവഹാര	-11.2221
▁ഹമീദ്	-11.2221
▁സബർബ	-11.2221
▁വണ്ടൂർ	-11.2221
▁തങ്കനീക്ക	-11.2221
വിശ്ലേഷ	-11.2221
ഭ്രാന്ത	-11.2222
▁ഭിക്ഷ	-11.2222
▁ശങ്കരനാരായണ	-11.2222
▁അനുഷ്ഠിച്ച	-11.2222
▁കോഴിക്കോട	-11.2222
▁ജന്മദിന	-11.2225
▁കേശവ	-11.2225
ച്ഛേദ	-11.2225
പിന്നീട്	-11.2225
കുറിപ്പുകള	-11.2228
▁ചോദിക്ക	-11.2229
▁കല്പിക്ക	-11.2233
▁എൻജിനീയറിങ്	-11.2235
പുൽച്ചാട	-11.2238
ിറ്റേന്ന്	-11.2254
ത്തുടങ്ങി	-11.2255
▁ജെർമ	-11.2289
▁വർഷങ്ങൾക്ക	-11.2326
നിഷേധ	-11.233
സമ്പത്ത	-11.2338
▁നടത്തുന്നതിന	-11.2343
▁യൂണിവേഴ്	-11.2344
▁അനിവാര്യ	-11.2345
▁ഞായറാഴ്ച	-11.2345
▁പുറപ്പെടുവിച്ച	-11.2345
▁സാഹസിക	-11.2345
▁ഫിലിപ്പൈൻ	-11.2345
▁ഒൻപതാ	-11.2345
▁ഉദ്ധരിച്ച	-11.2345
▁പസിഫിക്	-11.2345
▁പ്രകൃതിദത്ത	-11.2345
▁ജാനകി	-11.2345
Phra	-11.2345
▁ഉപദ്രവ	-11.2345
▁തക്കാളി	-11.2345
▁സദസ്സ	-11.2345
ാഖ്യാന	-11.2346
▁ഒടിയൻ	-11.2346
▁താഴ്വാര	-11.2347
▁നവാബ	-11.235
വ്യവസായ	-11.235
തിരുനാള	-11.2355
▁വഹിച്ചിരുന്ന	-11.2355
രാമായണ	-11.2362
പ്രദേശങ്ങൾ	-11.2365
▁പരിഭാഷപ്പെടുത്ത	-11.2401
▁ഡെവലപ്	-11.2402
▁അദ്ദേഹത്തിൻറ	-11.2422
▁വ്യാപിക്ക	-11.2432
ോണിൽ	-11.2451
ഡയറിക്കുറിപ്പുകൾ	-11.247
▁കർദ്ദിനാൾ	-11.247
▁നങ്ങ്യാർക്കൂത്ത	-11.247
▁പാത്രിയർക്കീസ	-11.247
▁ഗോപാലകൃഷ്ണ	-11.247
▁ഭരതനാട്യ	-11.247
▁മേൽക്കൂര	-11.247
▁നക്സലൈറ്റ	-11.247
▁പ്രേരിപ്പിച്ച	-11.247
▁ഫിലിംഫെയ	-11.247
▁പ്രകൃത്യാ	-11.247
▁ധമനി	-11.2472
▁അനുയായികൾ	-11.2476
ുന്നതിനിടയിൽ	-11.2477
സാംസ്കാരിക	-11.2477
▁പുത്രന്മാര	-11.2506
തീർഥ	-11.2517
▁ട്രസ്റ്റി	-11.2531
▁ഈനോക്ക	-11.2539
▁ഏറ്റുമാനൂർ	-11.2596
▁യാഥാർത്ഥ്യ	-11.2596
▁ധൈര്യ	-11.2596
▁പകർപ്പവകാശ	-11.2596
▁സാറ്റലൈറ്റ്	-11.2596
▁അലക്സാണ്ടറ	-11.2596
▁അമിതാഭ	-11.2596
▁ദക്ഷിണാമൂർത്തി	-11.2596
uare	-11.2596
▁വികസിത	-11.2596
▁ഉസ്ബെക്	-11.2597
▁ഇക്കാലയളവി	-11.2597
▁വെളുപ്പ	-11.2597
ക്കിടക്കുന്ന	-11.2599
old	-11.2599
ബന്ധിച്ചിടത്തോളം	-11.2601
▁അഹമ്മദ	-11.2602
▁വയനാട	-11.2602
യൂറോപ്യൻ	-11.2605
▁നാല്പത	-11.2609
▁ഒതുക്ക	-11.2623
സാക്ഷികളുടെ	-11.2639
▁അനുസരിച്ച	-11.2651
▁എന്നിവടങ്ങളി	-11.2692
▁ഈരാറ്റുപേട്ട	-11.2725
▁മംഗലാപുരം	-11.2725
▁അറ്റ്ലാന്റിക്	-11.2725
▁ഒൻപതു	-11.2725
▁ചിദംബര	-11.2725
▁ജഹാംഗീർ	-11.2725
▁പ്രോജക്ട	-11.2725
▁വൈകുന്നേര	-11.2725
ഭ്രംശ	-11.2725
▁അച്ചുതണ്ട	-11.2725
▁ചുറ്റളവ	-11.2725
▁ആനുകാലിക	-11.2725
▁ചുമതലയേറ്റ	-11.2725
▁മാലാഖ	-11.2725
▁വരൾച്ച	-11.2725
▁ഖിൽജി	-11.2725
▁പാർവതി	-11.2725
▁ഒരാഴ്ച	-11.2725
▁മെഡൽ	-11.2726
▁ജോർജ്ജിയ	-11.2726
▁വർധിക്ക	-11.2727
▁സ്കൂളുകള	-11.2728
ഊ	-11.2735
സഞ്ചാര	-11.2736
ഫീൽഡ	-11.2748
ുമ്പോഴേക്ക	-11.2752
▁വാഴ്ത്ത	-11.2752
ുൽക്കർ	-11.2765
==	-11.2789
ോണിയൻ	-11.2801
▁ചുരുങ്ങ	-11.2806
▁പ്രസിഡ	-11.2808
നുഷ്ഠാന	-11.2833
▁അഭിനേത്രി	-11.2854
▁നെപ്പോളിയ	-11.2854
സഹിഷ്ണു	-11.2854
▁ശ്രീകോവിൽ	-11.2854
▁കടൽത്തീര	-11.2854
▁അൾട്രാ	-11.2854
▁പ്രൊഫഷണൽ	-11.2854
▁സ്തോത്ര	-11.2854
▁അർമേനിയ	-11.2854
▁ശിഥില	-11.2854
▁ഫിറോസ്	-11.2855
ൊട്ടാകെ	-11.2855
▁മഹാരാജാസ	-11.2855
error	-11.2855
▁ബ്രൗസ	-11.2856
▁പാരായണ	-11.2856
തിനാവശ്യമായ	-11.2859
code	-11.2861
▁കൈലാസ	-11.2861
▁മെത്രാന്മാര	-11.2869
ഗ്രന്ഥശാലയിൽ	-11.2872
ിരട്ടി	-11.2899
കൊല്ലം	-11.2904
ല്ലൂരി	-11.2924
▁ശിൽപ	-11.2943
▁ഗുരുത്വാകർഷണ	-11.2986
▁പേരുകേട്ട	-11.2986
▁സ്വാതന്ത്യ	-11.2986
▁കുറ്റകൃത്യ	-11.2986
▁ടാന്റലം	-11.2986
▁ഖ്യാതി	-11.2986
▁മെത്രാൻ	-11.2986
▁പടയണി	-11.2986
ാഭിനയ	-11.2986
▁ശ്വേത	-11.2986
▁ചന്ദ്രമുഖി	-11.2986
▁റയിൽവേ	-11.2986
▁ഗീതാഞ്ജലി	-11.2987
▁ആശങ്ക	-11.2987
▁അത്യന്ത	-11.2987
▁മറാത്തി	-11.2987
▁പാഞ്ചാല	-11.2987
▁കോമഡി	-11.2987
▁നിഷ്ക്രിയ	-11.2987
▁കുവൈറ്റ	-11.2991
▁നാലാമ	-11.2994
▁കൂർത്ത	-11.2997
▁ഭംഗിയ	-11.2999
▁ബാബിലോണ	-11.3003
▁സ്ഥാനത്തേക്ക	-11.3039
ാവശ്യങ്ങൾക്ക	-11.3056
പെടുത്തി	-11.3065
പ്രദേശമാണ	-11.3077
▁ഭഗവദ്	-11.31
▁കലാകാരന്മാര	-11.3114
▁കുങ്കുമ	-11.3119
▁പ്രാവീണ്യ	-11.3119
▁പരിശുദ്ധ	-11.3119
▁മിഷനറി	-11.3119
▁വർദ്ധിപ്പിച്ച	-11.3119
▁ടോളമി	-11.3119
▁അലങ്കരിച്ച	-11.3119
▁പരിഷ്കരിച്ച	-11.3119
▁അനിമേഷ	-11.3119
▁ഇറച്ചി	-11.312
▁ശാഫി	-11.312
▁കുട്ടനാട്ട	-11.312
▁ചകിരി	-11.312
▁ആലപിക്ക	-11.312
▁ശാരദ	-11.312
▁റൗണ്ട	-11.312
▁വ്യവസ്ഥിതി	-11.3121
▁ഓർക്കിഡ	-11.3121
▁സങ്കീർണ്ണമായ	-11.3122
▁കോംഗോ	-11.3123
▁നർത്തകി	-11.3124
▁ചാമ്പ്യൻഷിപ്പ	-11.3126
പ്രശ്നങ്ങള	-11.3132
ഗുരുവിന്റെ	-11.3133
ചികിത്സ	-11.3135
മധുര	-11.3135
മെട്രിക്	-11.3142
▁ഒപ്പുവച്ച	-11.3176
▁ആയപ്പോഴേക്കു	-11.3177
border	-11.3254
▁എത്യോപ്യ	-11.3254
▁ഒട്ടുമിക്ക	-11.3254
▁കോൺഫറൻസ	-11.3254
▁പരമോന്നത	-11.3254
▁എല്ലായിടത്തും	-11.3254
▁ചൂഷണം	-11.3254
▁ധൃതരാഷ്ട്ര	-11.3254
▁മാർത്തോമ്മാ	-11.3254
▁വാസുദേവൻ	-11.3254
▁വൈവിധ്യമാർന്ന	-11.3254
▁സഹസ്രാബ്ദ	-11.3254
▁ഓൺലൈൻ	-11.3254
▁ഹൃദയാഘാത	-11.3254
▁ഗൗതമ	-11.3255
▁സാവധാന	-11.3255
▁അസ്വസ്ഥ	-11.3255
▁പുരുഷോത്ത	-11.3255
▁കാങ്ഡ	-11.3255
▁ആഫീസർ	-11.3255
▁അതിജീവിച്ച	-11.3255
▁ഏർപ്പാട	-11.3255
▁പ്രഭാത	-11.3255
▁കന്നട	-11.3256
▁ഉത്തരായന	-11.3256
▁സഞ്ജയ	-11.3257
ക്രിസ്ത്യാനി	-11.326
▁രാജകുമാരന	-11.326
വതരിപ്പി	-11.3265
▁ഏക്കറ	-11.3271
നാമകരണം	-11.3272
ത്തിനൊടുവിൽ	-11.3273
▁വിസർജ	-11.3276
▁അനുഗമി	-11.3278
ുബ്രഹ്മണ്യസ്വാമി	-11.3289
▁വർഷത്തേക്ക	-11.3323
▁ബിന്ദുവ	-11.3325
▁വേർതിരിച്ചെടു	-11.3333
മണ്ഡപം	-11.3365
▁നിസ്സഹകരണ	-11.3376
▁മാസിഡോണിയ	-11.3391
▁ആപ്ലിക്കേഷന	-11.3391
▁ചണ്ഢീഗഡ	-11.3391
▁യോഗക്ഷേമ	-11.3391
▁കൊടുങ്ങല്ലൂര	-11.3391
▁ജ്യേഷ്ഠ	-11.3391
▁തണ്ണിമത്ത	-11.3391
▁മാത്രവുമല്ല	-11.3391
▁ടാഗോറിന്റെ	-11.3391
▁പ്രചരിപ്പിച്ച	-11.3392
▁മസ്തിഷ്ക	-11.3392
▁ഗുരുവായൂര	-11.3392
▁സംഘാടക	-11.3392
▁ചിറ്റഗോങ്	-11.3392
▁വീണ്ടെടുക്ക	-11.3392
▁വെങ്കല	-11.3392
▁നിലനിൽപ്പ	-11.3392
▁ടർക്കി	-11.3392
▁അതിരൂപത	-11.3392
▁ഗവർണ്ണറ	-11.3393
▁എനിക്ക്	-11.3393
▁മിഡിൽ	-11.3394
▁വിക്ഷേപിക്ക	-11.3394
▁ഓക്സിഡ	-11.3394
▁തോൽവി	-11.3396
▁മ്യാൻ	-11.3399
▁കാനോന	-11.34
ആമത്തെ	-11.3402
ഭോഗ	-11.3409
സ്കൂൾ	-11.3409
വ്യക്തി	-11.3411
▁ആന്തര	-11.342
ദർശനത്തിനെത്തിയ	-11.345
മതവുമായി	-11.3452
▁ഡോക്ടറ	-11.3453
▁ലക്ഷത്തോള	-11.3469
▁നസ്രാണി	-11.3473
നിവേശ	-11.3489
നടപടികള	-11.3506
▁സ്വന്തമാക്ക	-11.3509
വത്കരണത്ത	-11.3518
▁ആഭിമുഖ്യത്തി	-11.353
▁ഔറംഗസേബ	-11.353
▁ഡിപ്ലോമ	-11.353
▁യാന്ത്രിക	-11.353
▁വിക്ടോറിയ	-11.353
▁വൈസ്രോയി	-11.353
▁ശരീഅത്ത്	-11.353
▁സത്യപ്രതിജ്ഞ	-11.353
ുൾപ്പടെ	-11.353
▁ഒന്നാമന്റെ	-11.353
▁ദൈനംദിന	-11.353
▁പീപ്പിൾസ്	-11.353
▁അഗ്നിശമന	-11.353
▁ആവാസവ്യവസ്ഥ	-11.353
▁നിരാഹാര	-11.353
▁അത്താഴ	-11.3531
▁ഗ്രൗണ്ട	-11.3531
▁സന്തതി	-11.3531
▁അഹിംസ	-11.3531
▁വില്പന	-11.3531
▁ലായനി	-11.3532
▁വംശജർ	-11.3532
▁ഷൂജ	-11.3532
▁കൊടിമര	-11.3533
▁ചെറുപ്പക്കാര	-11.3543
▁രണ്ടാമന	-11.3569
▁അമ്മാവന	-11.3619
തിനുപയോഗിക്കുന്ന	-11.3628
▁നശിക്ക	-11.363
▁നിക്ഷേപിക്ക	-11.3641
പാളയ	-11.3645
▁see	-11.3656
▁അഗ്നിപർവത	-11.3671
▁ഇക്വഡോറ	-11.3671
▁ഉക്രെയിന	-11.3671
▁ഒഡീസ്സി	-11.3671
▁ഓഗസ്റ്റിൽ	-11.3671
▁പര്യവേഷണ	-11.3671
▁മലർവാടി	-11.3671
▁മസ്തിഷ്കാഘാത	-11.3671
▁മേൽക്കോയ്മ	-11.3671
▁സ്പോർട്സ്	-11.3671
▁സ്ഫടിക	-11.3671
▁നിഘണ്ടു	-11.3671
▁ജനതാദൾ	-11.3671
▁സ്വഹാബി	-11.3671
▁ഡൈവേർ	-11.3671
▁ആഖ്യാന	-11.3671
▁ക്ഷീണ	-11.3671
▁ട്രേഡ്	-11.3671
▁അസ്തിത്വ	-11.3671
▁ആവർത്തിച്ച	-11.3671
▁മാർട്ടിൻ	-11.3672
▁മലയോര	-11.3672
▁നിക്കോള	-11.3674
▁ഇത്തരമ	-11.3674
▁മൈസൂര	-11.3674
raja	-11.3675
▁ധൂമകേതുക്കള	-11.3679
▁നിറുത്തി	-11.3681
▁ചിലയിടങ്ങളി	-11.3685
▁ഡ്രാമ	-11.3689
▁യുവാക്കള	-11.3689
▁മിനുട്ട	-11.369
സുന്ദര	-11.3696
െപ്പോലുള്ള	-11.3702
തിനുശേഷ	-11.3703
▁ഇവിടേയ	-11.3715
▁ശരിക്കു	-11.3723
മേനോന്റെ	-11.3736
പ്പെടുമെന്ന	-11.3747
▁പിന്തുടർച്ച	-11.3763
▁ഇറാഖി	-11.378
▁സംസാരിക്കുന്നവര	-11.3787
▁മുകളിലേക്ക	-11.3791
▁സ്പെക്ട്ര	-11.3814
▁അപ്രതീക്ഷിത	-11.3814
▁അഭയാർത്ഥി	-11.3814
▁ആംഗ്ലിക്കൻ	-11.3814
▁കരുണാകര	-11.3814
▁ഗാലക്സി	-11.3814
▁പ്രോത്സാഹന	-11.3814
▁മഹ്മൂദ്	-11.3814
▁മൺസൂൺ	-11.3814
▁യെരുശലേമി	-11.3814
▁കുട്ടനാട	-11.3814
▁സാധാരണഗതിയിൽ	-11.3814
▁മയ്യഴി	-11.3814
North	-11.3814
▁നമ്മൾ	-11.3814
▁ജീവജാലങ്ങള	-11.3814
▁എയർലൈൻ	-11.3814
▁ഹനഫി	-11.3814
▁പ്രൊഫസറ	-11.3817
നർത്തക	-11.3819
▁വീക്ഷിക്ക	-11.382
▁പൊലീസ	-11.3821
▁മടങ്ങിയെത്തി	-11.3822
പകുതി	-11.3823
മാധ്യമ	-11.3839
▁അഖില	-11.3851
▁പിറ്റേ	-11.3868
▁നദിക്കരയി	-11.3869
പ്രാധാന്യമർഹിക്ക	-11.3881
▁മുപ്പത്തി	-11.3943
പ്രചോദ	-11.3958
▁പൂർത്തിയാക	-11.3958
▁Delhi	-11.3959
▁എഴുന്നള്ളി	-11.3959
▁കരീബിയൻ	-11.3959
▁ചങ്ങമ്പുഴ	-11.3959
▁ധനുഷ്കോടി	-11.3959
▁വെനിസ്വേല	-11.3959
▁പൃഥ്വി	-11.3959
▁സമകാലീന	-11.3959
▁മറികടക്ക	-11.3959
▁നിയന്ത്രിത	-11.3959
▁ഇലപൊഴി	-11.3959
:100%}	-11.3959
▁ക്ഷീര	-11.3959
▁കൂടിക്കാഴ്ച	-11.3959
▁കോളജിൽ	-11.3961
സമ്പന്ന	-11.397
▁പ്രസിഡൻറ	-11.3996
ധികവും	-11.4013
ഷനുകള	-11.4017
ുകയുമുണ്ടായി	-11.4026
▁വ്യാപിപ്പിക്ക	-11.4032
▁സ്ഥാപിത	-11.4072
▁എക്സിക്യൂട്ടീവ	-11.4106
▁ധന്വന്തരി	-11.4106
▁നെസ്തോറിയ	-11.4106
▁പെരിന്തൽമണ്ണ	-11.4106
▁ബാർസലോണ	-11.4106
▁മെത്രാപ്പോലീത്ത	-11.4106
▁ലോകപൈതൃക	-11.4106
\"""	-11.4106
▁Sanctuary	-11.4106
▁ആഴ്സണല	-11.4106
▁തിളങ്ങുന്ന	-11.4106
▁നീലകണ്ഠ	-11.4106
▁പണ്ഡിറ്റ്	-11.4106
▁റമദാൻ	-11.4106
▁സൈദ്ധാന്തിക	-11.4106
▁ഉഡുപ്പി	-11.4106
▁പിളർപ്പ	-11.4106
▁ലണ്ടനിൽ	-11.4106
▁സെൽഷ്യസ	-11.4106
▁കാറ്റലോഗ	-11.4106
▁ശർക്കര	-11.4106
▁ചങ്ങല	-11.4107
▁ക്രിസ്റ്റഫ	-11.4107
▁ആവർത്തിക്ക	-11.4107
ോൽസവ	-11.4107
ുന്നതോടൊപ്പം	-11.4107
▁പരിപാലിക്ക	-11.4108
മ്പാടും	-11.4108
▁പൊളിച്ച	-11.4115
▁അച്ചടക്ക	-11.4118
ചേർന്ന്	-11.4121
സാമ്പത്തിക	-11.4136
സന്ധി	-11.4148
തിലധികമ	-11.4203
▁മാറുന്നത	-11.4224
▁ഗാനരചയിതാവ	-11.4255
▁മാധുരി	-11.4255
▁ആവിർഭാവ	-11.4255
▁കാബൂൾ	-11.4255
▁നൈസർഗിക	-11.4255
▁പക്ഷിസങ്കേത	-11.4255
▁ബ്ളോക്ക്	-11.4255
▁മെഡിറ്ററേനിയൻ	-11.4255
▁ഉബുണ്ടു	-11.4255
▁ശതാബ്ദ	-11.4255
▁പൂർത്തീകരിക്ക	-11.4255
▁ഇടുങ്ങിയ	-11.4255
▁ശ്രവണ	-11.4256
▁വഴങ്ങി	-11.4256
▁നായിഡു	-11.4256
▁അലങ്കരിക്ക	-11.4256
▁ലോർഡ്	-11.4256
▁സുഭാഷ്	-11.4256
▁ബനാറസ	-11.4257
▁പോലീസുകാര	-11.4261
▁ചെരിവ	-11.4265
▁വെനീസ	-11.427
വരുമാനമായി	-11.427
▁ചാലിയാ	-11.4274
▁വർദ്ധനവ	-11.4275
ചിറക	-11.4278
▁വേവിച്ച	-11.4278
▁നിരസിച്ച	-11.4278
ഭൗതിക	-11.4287
▁പുറകില	-11.429
▁നെറ്റ്വർക്ക	-11.4325
▁ബന്ധുക്കള	-11.4376
▁അടുത്തകാലത്ത	-11.4376
▁കമ്പ്യൂട്ടറുകള	-11.4385
▁നഖ്ശബന്ദി	-11.4402
▁സമചതുര	-11.4407
▁അക്കാഡമി	-11.4407
▁അഫിലിയേറ്റ	-11.4407
▁ഓറിയോണി	-11.4407
▁കാശ്മീർ	-11.4407
▁ഛായാഗ്രാഹ	-11.4407
▁ഡബ്ബാവാല	-11.4407
▁നങ്കേരെ	-11.4407
▁അധിവസിക്കുന്ന	-11.4407
▁ഡാറ്റാബേസ	-11.4407
▁ടാഗൂറ	-11.4407
▁തലച്ചോറ	-11.4407
▁ബ്രൗൺ	-11.4407
▁സാക്ഷ്യം	-11.4407
▁ഒടുവില	-11.4407
▁ചലചിത്ര	-11.4407
▁ഗംഗാതട	-11.4407
▁തമിൾ	-11.4407
▁ഇൻപുട്ട	-11.4407
▁അവതരിച്ച	-11.4408
▁മഴക്കാടുകള	-11.4408
pec	-11.4408
▁ഗുരുതരമായ	-11.4409
യെക്കുറിച്ചും	-11.441
▁ഏജന്റ	-11.441
ത്തീരുന്നു	-11.441
▁മുഴുകി	-11.4411
▁ആലുവ	-11.4416
വാര്യർ	-11.4419
▁ശൈത്യകാലത്ത	-11.4423
▁ആദരിക്ക	-11.4425
▁മദ്ധ്യഭാഗത്ത	-11.4438
രാക്ഷസ	-11.4439
ചുറ്റും	-11.4441
▁മേനോന	-11.4482
▁ഗ്രാഫിക്	-11.4493
▁വിത്തുകള	-11.4502
ോടനുബന്ധിച്ച്	-11.4558
▁ജൈറോസ്കോപ്പ	-11.4561
▁കിലുക്കം	-11.4561
▁ജേതാക്കളായ	-11.4561
▁തൃപ്പൂണിത്തുറ	-11.4561
▁പോർച്ചുഗീസുകാര	-11.4561
▁വിന്യസിച്ച	-11.4561
▁സുഗന്ധദ്രവ്യ	-11.4561
▁ഫറൂഖ്	-11.4561
▁കൾച്ചറ	-11.4561
▁പതുക്കെ	-11.4561
▁മംഗോൾ	-11.4561
▁സിന്ദൂര	-11.4561
▁ഡിവിഷൻ	-11.4561
▁മൂന്നാമൻ	-11.4561
▁അപരനാമ	-11.4561
▁പ്രവചിക്ക	-11.4561
അന്തോനീസ	-11.4561
▁സുവർണ	-11.4561
▁ഹംഗറി	-11.4561
▁അവഗണിക്ക	-11.4565
ശീർഷ	-11.4565
▁നിഴല	-11.4568
▁ശ്രീശാന്ത	-11.4579
വിനോദ	-11.4598
▁ഖത്തറി	-11.46
ജയന്തി	-11.4614
അതിശയ	-11.4647
▁പര്യാപ്ത	-11.4654
▁ശിഷ്യന്മാര	-11.4704
11121	-11.4717
ദാമോദരൻ	-11.4717
▁കനേഡിയൻ	-11.4717
▁കുടികൊള്ളുന്നു	-11.4717
▁പോർച്ചുഗീസുകാർ	-11.4717
▁ഫലഭൂയിഷ്ഠ	-11.4717
▁മങ്കൊമ്പ	-11.4717
▁വന്യമൃഗ	-11.4717
ശ്മശാന	-11.4717
▁ക്രെഡിറ്റ	-11.4717
▁ചന്തുമേനോൻ	-11.4717
▁ചുഴലിക്കാറ്റ	-11.4717
▁നൈജീരിയ	-11.4717
▁മദ്ഹബ	-11.4717
▁ദ്രുപദ	-11.4717
▁സ്വായത്തമാക്ക	-11.4717
▁ഉന്നയിച്ച	-11.4717
▁പതിമൂന്നു	-11.4717
▁ഗവർണ്ണർ	-11.4717
▁ഫഹദ്	-11.4717
▁ശ്രുതി	-11.4717
▁ഉദ്യോഗസ്ഥർ	-11.4717
▁ഭീതി	-11.4718
▁പങ്കിടുന്നു	-11.4718
▁സുനാമി	-11.4718
സമ്പുഷ്ട	-11.4718
വിഘ്ന	-11.4718
▁വനപ്രദേശ	-11.472
▁വൃത്തിയാക്ക	-11.472
പൂമ്പാറ്റ	-11.4721
▁മുനമ്പ	-11.4722
▁സഖ്യകക്ഷികള	-11.4722
▁ഇംഗ്ലീഷിലു	-11.473
▁പെയിന്റിംഗ	-11.4732
കഥാപാത്രങ്ങള	-11.4748
ഹിന്ദു	-11.4756
▁തമ്പുരാന	-11.4756
പ്രകടന	-11.4756
നിവാരണ	-11.4759
കോകില	-11.4774
നേതാക്കളുടെ	-11.4821
▁വിവിധയിന	-11.4861
▁ലയിപ്പി	-11.4862
ാഞ്ജലി	-11.4876
▁Unit	-11.4876
വൈദഗ്ദ്ധ്യ	-11.4876
▁അതോറിറ്റി	-11.4876
▁അന്റാർട്ടിക്ക	-11.4876
▁അലഹബാദ്	-11.4876
▁ഒണ്ടാറിയോ	-11.4876
▁പ്രാതിനിധ്യ	-11.4876
▁സിദ്ദീഖ്	-11.4876
▁എറണാകുളത്ത	-11.4876
▁ബഹുഭൂരിപക്ഷ	-11.4876
▁മരണമടയ	-11.4876
▁വാർദ്ധക്യ	-11.4876
▁ശകുന്തള	-11.4876
▁ഷിക്കാഗോ	-11.4876
▁സാക്ഷാൽ	-11.4876
സാമീപ്യ	-11.4876
▁ഓണത്തല്ല	-11.4876
▁പ്രേഷണ	-11.4876
▁ശിഖര	-11.4876
▁മുകുന്ദ	-11.4876
▁സ്ക്രീൻ	-11.4876
▁മീററ്റ്	-11.4876
▁ഇക്കൂട്ടത്തിൽ	-11.4876
▁ഫോസ്സിൽ	-11.4876
▁ബന്ധുക്കൾ	-11.4876
▁ദേശീയപതാക	-11.4876
▁ഏഞ്ചല	-11.4878
▁അണിഞ്ഞ	-11.4881
▁ബാറ്റിംഗ	-11.4882
കെമിക്കൽ	-11.4883
▁ഉറങ്ങ	-11.4892
ചേർന്നു	-11.4893
▁ഇല്ലാതായ	-11.4898
കേളപ്പന	-11.4944
▁ആരോപിക്കപ്പെട	-11.4955
▁എക്സ്പ്രസ്	-11.5003
▁അടിസ്ഥാനത്തിലാണ	-11.5006
▁എൻജിനീയറ	-11.5019
▁ബാക്ട്രിയ	-11.5037
ുന്തോറും	-11.5037
▁ആമസോൺ	-11.5037
▁കരുനാഗപ്പള്ളി	-11.5037
▁കാതോലിക്ക	-11.5037
▁തഞ്ചാവൂർ	-11.5037
▁നിര്യാതനായി	-11.5037
▁ബൈസാന്തിയ	-11.5037
▁അഡ്രസ്സ	-11.5037
▁എർദ്വാ	-11.5037
▁താൽമുദ	-11.5037
▁വിയറ്റ്നാമി	-11.5037
▁എഞ്ചിനീയർ	-11.5037
▁ശതവാഹന	-11.5037
▁അയർലണ്ട	-11.5037
▁ഖദീജ	-11.5037
▁ജയിംസ്	-11.5037
▁പാർപ്പിട	-11.5037
കരമുത്തി	-11.5037
▁അനുസ്വാര	-11.5037
വിലാസിനി	-11.5037
▁സ്നേക്ക്	-11.5037
▁തരംതിരിച്ച	-11.5037
▁ബീഹാറി	-11.5038
▁നിറവേറ്റ	-11.5039
▁ഡെബിറ്റ	-11.504
ുമൊത്ത്	-11.5041
▁ഫിദല	-11.5046
▁നിഷേധിച്ച	-11.5046
തിനെത്തുടർന്ന	-11.5077
ഔ	-11.5081
▁സൈന്യാധിപന	-11.51
ിലൊരാളാണ്	-11.517
സത്യാഗ്രഹം	-11.5189
▁ഉദ്ഘാടന	-11.5196
uote	-11.5201
▁കുറൊസാവ	-11.5201
▁Bird	-11.5201
▁കാർട്ടൂണിസ്റ്	-11.5201
▁കൂത്തമ്പല	-11.5201
▁കോയമ്പത്തൂർ	-11.5201
▁ചെമ്മീൻ	-11.5201
▁നട്ടുവളർത്ത	-11.5201
▁ഫ്രെയിം	-11.5201
▁ബാറ്റ്സ്മാൻ	-11.5201
▁യെരുശലേം	-11.5201
▁വെൽഫെയർ	-11.5201
ോത്പാദന	-11.5201
▁ടെലിവിഷന	-11.5201
▁തേനീച്ച	-11.5201
▁പ്രാബല്യത്തി	-11.5201
▁ഹബീബ്	-11.5201
▁ദശരഥ	-11.5201
▁സുരേന്ദ്ര	-11.5201
▁ഢാക്ക	-11.5201
▁കൈയടക്ക	-11.5201
പഞ്ചനേത്രി	-11.5201
▁അർഹരായ	-11.5201
▁പ്രോവിൻസ	-11.5201
▁മഹത്ത്വ	-11.5203
▁വെളിവാക്ക	-11.5203
▁എന്നിവരോടൊപ്പ	-11.521
▁മൂന്നാമന	-11.5216
നമ്പ്യാ	-11.5223
പട്ടണത്ത	-11.5244
മുഹമ്മദ്	-11.5248
▁വേർപെടുത്ത	-11.5272
▁species	-11.5367
▁അഭിനേതാവ	-11.5367
സാമഗ്രികൾ	-11.5368
▁ആംബർഗ്രീസ	-11.5368
▁ഊഷ്മാവ	-11.5368
▁ഒട്ടകപ്പക്ഷി	-11.5368
▁ഗൗരവ	-11.5368
▁ചക്കിപ്പരുന്ത	-11.5368
▁ഡെപ്യൂട്ടി	-11.5368
▁ശ്ളോക	-11.5368
▁പാരിസ്ഥിതിക	-11.5368
ാന്തരീക്ഷ	-11.5368
▁സമ്പാദിച്ച	-11.5368
▁നീതിന്യായ	-11.5368
▁നാമാവശേഷ	-11.5368
▁വിളിപ്പേര	-11.5368
▁ചൈത്യ	-11.5368
▁സെയിന്റ്	-11.5368
പൊളിറ്റൻ	-11.5368
graph	-11.5368
രാഘവൻ	-11.5368
▁അഗാധ	-11.5368
▁പരിശീലിപ്പിക്ക	-11.5368
സാക്ഷ്യപ്പെടുത്ത	-11.5368
▁East	-11.5368
▁മുസ്ലീങ്ങൾ	-11.5369
▁കമ്മിഷ	-11.5372
നിപുണ	-11.5372
തിരഞ്ഞെടുപ്പിൽ	-11.5386
▁സ്റ്റേജ	-11.5388
കുടീര	-11.539
▁സർക്കാരിനെതിര	-11.5401
ിത്തുടങ്ങ	-11.5403
പരിഷ്കർത്താവ	-11.5415
നിർമ്മിതമായ	-11.547
▁അഭിനേതാക്കള	-11.5504
▁ആസ്ത്രേലിയ	-11.5537
▁താന്ത്രിക	-11.5537
▁മയക്കുമരുന്ന	-11.5537
▁അൽഗൊരിത	-11.5537
▁ഉപന്യാസ	-11.5537
▁ഓർക്കസ്ട്ര	-11.5537
▁ഗംഗോത്രി	-11.5537
▁നെഹ്റു	-11.5537
▁മുആവിയ	-11.5537
▁മുൻനിർത്തി	-11.5537
▁ലിനക്സ്	-11.5537
▁ഡിസൈൻ	-11.5537
▁ഫ്രോയിഡ	-11.5537
▁പുകയില	-11.5537
▁ഇരുപത്തിനാല	-11.5537
▁മോചിപ്പിച്ച	-11.5538
▁ഉദ്യോഗസ്ഥനായ	-11.5538
▁ചരിഞ്ഞ	-11.5538
▁അവഗണിച്ച	-11.5538
▁പ്രതിഫലിപ്പിക്ക	-11.5539
▁ആർട്ടിസ്റ്റ	-11.5539
▁വിശ്വസിയ്ക്ക	-11.5539
▁സമീപപ്രദേശ	-11.5584
▁മധ്യഭാഗത്ത	-11.5638
▁കാത്തിരിക്ക	-11.5667
സഹജമായ	-11.57
▁അപ്രത്യക്ഷമായ	-11.5709
▁അഫ്ഫാൻ	-11.5709
▁ആസ്ട്രേലിയ	-11.5709
▁എബ്രായബൈബിള	-11.5709
▁കംപ്യൂട്ടറ	-11.5709
▁കോമൺവെൽത്ത	-11.5709
▁പാണ്ഡിത്യ	-11.5709
▁രോഹിണി	-11.5709
▁സെന്റിമീറ്റർ	-11.5709
▁other	-11.5709
▁ഋത്വിക്	-11.5709
▁ഏറ്റുവാങ്ങി	-11.5709
▁കന്ദഹാർ	-11.5709
▁കുറ്റ്യാടി	-11.5709
▁ശുശ്രൂഷ	-11.5709
▁സ്വാഗതം	-11.5709
▁പ്രയത്ന	-11.5709
▁കാൺപൂർ	-11.5709
▁വോൾട്ടേജ	-11.5709
▁തോതിലുള്ള	-11.571
▁സത്ലജ	-11.571
▁പുകഴ്	-11.571
▁രാജകുമാരൻ	-11.571
▁തിരുമുമ്പ	-11.571
▁അരവിന്ദ	-11.571
▁ഉന്നയിക്ക	-11.571
▁പ്രവേശിപ്പിക്ക	-11.5711
▁മുന്നൂറ	-11.5711
▁ലക്ഷ്യമിട്ട	-11.5711
▁അനുസരിക്ക	-11.5712
▁ദർശിക്ക	-11.5712
▁സീരീസ	-11.5713
▁ആൺകുട്ടികള	-11.5715
free	-11.5715
ോടൊത്ത	-11.5715
▁വസിച്ചിരുന്ന	-11.5719
മംഗലത്ത	-11.5752
▁ജനങ്ങളോട	-11.5761
മൈസൂർ	-11.5765
▁ഭാഷകളിലേക്ക	-11.5768
ചതുർവരയൻ	-11.5821
·	-12.0412
′	-13.0198
